{
    "version": "1.0",
    "truncation": null,
    "padding": null,
    "normalizer": null,
    "added_tokens": [
        {
            "id": 2,
            "special": true,
            "content": "<s>",
            "single_word": false,
            "lstrip": false,
            "rstrip": false,
            "normalized": true
        },
        {
            "id": 3,
            "special": true,
            "content": "</s>",
            "single_word": false,
            "lstrip": false,
            "rstrip": false,
            "normalized": true
        },
        {
            "id": 1,
            "special": true,
            "content": "[PAD]",
            "single_word": false,
            "lstrip": false,
            "rstrip": false,
            "normalized": true
        },
        {
            "id": 0,
            "special": true,
            "content": "[UNK]",
            "single_word": false,
            "lstrip": false,
            "rstrip": false,
            "normalized": true
        }

    ],
    "pre_tokenizer": {
        "type": "ByteLevel",
        "add_prefix_space": false,
        "trim_offsets": true
    },
    "post_processor": {
        "type": "ByteLevel",
        "add_prefix_space": true,
        "trim_offsets": false
    },
    "decoder": {
        "type": "ByteLevel",
        "add_prefix_space": true,
        "trim_offsets": true
    },
    "model": {
        "dropout": null,
        "unk_token": null,
        "continuing_subword_prefix": "",
        "end_of_word_suffix": "",
        "fuse_unk": false,
        "vocab": {
            "!": 4,
            "\"": 5,
            "#": 6,
            "$": 7,
            "%": 8,
            "&": 9,
            "'": 10,
            "(": 11,
            ")": 12,
            "*": 13,
            "+": 14,
            ",": 15,
            "-": 16,
            ".": 17,
            "/": 18,
            "0": 19,
            "1": 20,
            "2": 21,
            "3": 22,
            "4": 23,
            "5": 24,
            "6": 25,
            "7": 26,
            "8": 27,
            "9": 28,
            ":": 29,
            ";": 30,
            "<": 31,
            "</s>": 3,
            "<s>": 2,
            "=": 32,
            ">": 33,
            "?": 34,
            "@": 35,
            "A": 36,
            "B": 37,
            "C": 38,
            "D": 39,
            "E": 40,
            "F": 41,
            "G": 42,
            "H": 43,
            "I": 44,
            "J": 45,
            "K": 46,
            "L": 47,
            "M": 48,
            "N": 49,
            "O": 50,
            "P": 51,
            "Q": 52,
            "R": 53,
            "S": 54,
            "T": 55,
            "U": 56,
            "V": 57,
            "W": 58,
            "X": 59,
            "Y": 60,
            "Z": 61,
            "[": 62,
            "[PAD]": 1,
            "[UNK]": 0,
            "\\": 63,
            "]": 64,
            "^": 65,
            "_": 66,
            "`": 67,
            "a": 68,
            "b": 69,
            "c": 70,
            "d": 71,
            "e": 72,
            "f": 73,
            "g": 74,
            "h": 75,
            "i": 76,
            "j": 77,
            "k": 78,
            "l": 79,
            "m": 80,
            "n": 81,
            "o": 82,
            "p": 83,
            "q": 84,
            "r": 85,
            "s": 86,
            "t": 87,
            "u": 88,
            "v": 89,
            "w": 90,
            "x": 91,
            "y": 92,
            "z": 93,
            "{": 94,
            "|": 95,
            "}": 96,
            "~": 97,
            "¡": 98,
            "¢": 99,
            "¢¨": 930,
            "£": 100,
            "¤": 101,
            "¤Ń": 4893,
            "¥": 102,
            "¦": 103,
            "§": 104,
            "¨": 105,
            "©": 106,
            "ª": 107,
            "«": 108,
            "¬": 109,
            "®": 110,
            "¯": 111,
            "°": 112,
            "±": 113,
            "²": 114,
            "³": 115,
            "´": 116,
            "µ": 117,
            "¶": 118,
            "·": 119,
            "¸": 120,
            "¹": 121,
            "º": 122,
            "»": 123,
            "¼": 124,
            "½": 125,
            "¾": 126,
            "¿": 127,
            "Â": 128,
            "Â¡": 4544,
            "Â¢": 4720,
            "Â£": 4049,
            "Â¤": 4124,
            "Â¥": 2798,
            "Â¦": 4150,
            "Â§": 4016,
            "Â¨": 4004,
            "Â©": 2759,
            "Âª": 4302,
            "Â«": 2555,
            "Â¬": 4749,
            "Â®": 2702,
            "Â¯": 4307,
            "Â°": 2885,
            "Â±": 3612,
            "Â²": 3769,
            "Â³": 3841,
            "Â´": 1855,
            "Âµ": 3821,
            "Â¶": 5139,
            "Â·": 2386,
            "Â¸": 4193,
            "Â¹": 4039,
            "Âº": 4120,
            "Â»": 2303,
            "Â¼": 3661,
            "Â½": 4545,
            "Â¾": 4484,
            "Â¿": 4470,
            "ÂĢ": 3667,
            "Âģ": 2732,
            "ÂĤ": 2981,
            "Âĥ": 2921,
            "ÂĦ": 4240,
            "ÂĨ": 4722,
            "Âĩ": 4961,
            "ÂĪ": 3798,
            "Âī": 4247,
            "ÂĬ": 4243,
            "Âĭ": 4032,
            "ÂĮ": 3886,
            "Âį": 4267,
            "Âİ": 5162,
            "Âı": 4427,
            "ÂĲ": 4828,
            "Âĳ": 4906,
            "ÂĴ": 4614,
            "Âĵ": 4581,
            "ÂĶ": 4607,
            "Âķ": 4395,
            "Âĸ": 4360,
            "ÂĹ": 4100,
            "Âĺ": 5286,
            "ÂĻ": 3945,
            "Âļ": 4977,
            "ÂĽ": 4367,
            "Âľ": 4589,
            "ÂĿ": 4838,
            "Âŀ": 4759,
            "ÂŁ": 4308,
            "Âł": 2577,
            "ÂŃ": 3759,
            "Ã": 129,
            "Ã¡": 2931,
            "Ã¢": 4303,
            "Ã£": 2251,
            "Ã¤": 3400,
            "Ã¥": 3258,
            "Ã¦": 3397,
            "Ã§": 3405,
            "Ã¨": 3494,
            "Ã©": 2478,
            "Ãª": 4332,
            "Ã«": 5171,
            "Ã¬": 5318,
            "Ã®": 5728,
            "Ã¯": 4104,
            "Ã°": 5352,
            "Ã±": 3936,
            "Ã²": 4703,
            "Ã³": 3730,
            "Ã´": 4447,
            "Ã¶": 3576,
            "Ã·": 4388,
            "Ã¸": 4787,
            "Ã¹": 5319,
            "Ãº": 4200,
            "Ã»": 5430,
            "Ã¼": 3554,
            "Ã½": 3418,
            "Ãģ": 5361,
            "ÃĤ": 4043,
            "Ãĥ": 4549,
            "ÃĦ": 5959,
            "Ãħ": 5390,
            "ÃĨ": 5540,
            "Ãĩ": 5391,
            "ÃĪ": 5712,
            "Ãī": 4106,
            "Ãį": 5858,
            "Ãĸ": 4997,
            "ÃĹ": 1661,
            "Ãĺ": 4998,
            "Ãļ": 5876,
            "Ãľ": 4804,
            "ÃŁ": 4238,
            "Ãł": 3974,
            "ÃŃ": 2664,
            "Ä": 130,
            "Äª": 5837,
            "Ä«": 4434,
            "Ä±": 4448,
            "ÄĢ": 5443,
            "Äģ": 3887,
            "Äĥ": 4252,
            "Äħ": 5770,
            "Äĩ": 5140,
            "ÄĮ": 4741,
            "Äį": 3736,
            "Äĵ": 5330,
            "ÄĽ": 3406,
            "Å": 131,
            "Å¡": 3486,
            "Å£": 5635,
            "Åª": 5859,
            "Å«": 4356,
            "Å¯": 3847,
            "Å½": 5668,
            "Å¾": 3560,
            "ÅĤ": 5213,
            "ÅĦ": 5729,
            "ÅĪ": 5131,
            "Åį": 4733,
            "ÅĴ": 5877,
            "Åĵ": 5751,
            "ÅĻ": 3621,
            "Åļ": 5151,
            "ÅĽ": 5041,
            "ÅŁ": 4729,
            "Åł": 4984,
            "Æ": 132,
            "Æ°": 5685,
            "ÆĴ": 4674,
            "Ç": 133,
            "Çİ": 5975,
            "È": 134,
            "É": 135,
            "ÉĻ": 5049,
            "Ê": 136,
            "Ê»": 5513,
            "Ë": 137,
            "ËĤ": 4760,
            "Ëĥ": 4773,
            "ËĨ": 5152,
            "ËĪ": 5607,
            "ËĬ": 5362,
            "Ëĭ": 5405,
            "Ëĺ": 4330,
            "ËĻ": 5470,
            "Ì": 138,
            "Ì£": 5838,
            "Ì¥": 4249,
            "Ìµ": 4745,
            "Ì¶": 4894,
            "ÌĢ": 4428,
            "Ìģ": 4095,
            "ÌĦ": 5839,
            "ÌĨ": 4471,
            "Ìĳ": 5353,
            "Í": 139,
            "ÍĪ": 4812,
            "Î": 140,
            "Î£": 3957,
            "Î¦": 4442,
            "Î¨": 4895,
            "Î©": 3916,
            "Î±": 2796,
            "Î²": 2893,
            "Î³": 4036,
            "Î´": 4509,
            "Îµ": 3740,
            "Î¶": 5310,
            "Î·": 4912,
            "Î¸": 4750,
            "Î¹": 4978,
            "Îº": 4010,
            "Î»": 4178,
            "Î¼": 3468,
            "Î½": 4590,
            "Î¿": 4805,
            "ÎĶ": 4380,
            "Îĸ": 4761,
            "Îĺ": 5444,
            "ÎĽ": 5008,
            "Îŀ": 4477,
            "Ï": 141,
            "ÏĢ": 4071,
            "Ïģ": 4916,
            "ÏĤ": 4944,
            "Ïĥ": 3801,
            "ÏĦ": 4187,
            "Ïħ": 5811,
            "ÏĨ": 3693,
            "Ïĩ": 5234,
            "ÏĪ": 4751,
            "Ïī": 2058,
            "ÏĮ": 5730,
            "Ð": 142,
            "Ð¡": 5203,
            "Ð°": 3377,
            "Ð±": 4723,
            "Ð²": 4121,
            "Ð³": 4617,
            "Ð´": 3256,
            "Ðµ": 3832,
            "Ð¶": 5960,
            "Ð·": 4334,
            "Ð¸": 3568,
            "Ð¹": 4281,
            "Ðº": 3809,
            "Ð»": 4135,
            "Ð¼": 4286,
            "Ð½": 3965,
            "Ð¾": 3394,
            "Ð¿": 4746,
            "ÐĲ": 5059,
            "Ðĳ": 5192,
            "ÐĴ": 5584,
            "ÐĶ": 2762,
            "Ðķ": 5445,
            "Ðĺ": 5933,
            "Ðļ": 4903,
            "Ðľ": 4966,
            "ÐĿ": 5840,
            "Ðŀ": 5908,
            "ÐŁ": 5525,
            "Ðł": 5262,
            "Ñ": 143,
            "ÑĢ": 3704,
            "Ñģ": 3753,
            "ÑĤ": 3905,
            "Ñĥ": 4382,
            "ÑĦ": 5812,
            "Ñħ": 5354,
            "ÑĨ": 5287,
            "Ñĩ": 5235,
            "ÑĪ": 5331,
            "ÑĬ": 5731,
            "Ñĭ": 4637,
            "ÑĮ": 4945,
            "Ñı": 5118,
            "Ò": 144,
            "Ó": 145,
            "Ó©": 5771,
            "Ô": 146,
            "Õ": 147,
            "Õŀ": 5934,
            "Ö": 148,
            "×": 149,
            "×¨": 5713,
            "×Ķ": 5656,
            "×ķ": 5431,
            "×Ļ": 5302,
            "Ø": 150,
            "Ø§": 4037,
            "Ø¨": 4689,
            "Ø©": 4979,
            "Øª": 4991,
            "Ø¬": 5935,
            "Ø®": 5976,
            "Ø¯": 4962,
            "Ø±": 4526,
            "Ø³": 5636,
            "Ø¹": 5225,
            "ØŃ": 5311,
            "Ù": 151,
            "Ù©": 4304,
            "ÙĤ": 4946,
            "Ùĥ": 5459,
            "ÙĦ": 4261,
            "Ùħ": 4467,
            "ÙĨ": 4917,
            "Ùĩ": 5153,
            "ÙĪ": 3884,
            "ÙĬ": 4482,
            "Ùİ": 5141,
            "ÙĴ": 5961,
            "Ú": 152,
            "Û": 153,
            "Û¶": 5069,
            "Ü": 154,
            "Ý": 155,
            "Þ": 156,
            "ß": 157,
            "à": 158,
            "à¤": 3314,
            "à¤¤": 5889,
            "à¤¨": 4972,
            "à¤°": 4712,
            "à¤¹": 5954,
            "à¤¾": 4865,
            "à¤¿": 4989,
            "à¤ķ": 5351,
            "à¥": 3941,
            "à¥Ģ": 5511,
            "à¥ģ": 5808,
            "à¥į": 4672,
            "à¥ĳ": 5726,
            "à¦": 4955,
            "à©": 5541,
            "à©Ń": 5684,
            "à®": 4491,
            "à®Ł": 5768,
            "à¯": 4901,
            "à¯į": 5469,
            "à²": 5471,
            "à¸": 850,
            "à¸¡": 2527,
            "à¸¢": 2573,
            "à¸£": 2009,
            "à¸¥": 2888,
            "à¸§": 2710,
            "à¸¨": 3384,
            "à¸©": 4269,
            "à¸ª": 2510,
            "à¸«": 3005,
            "à¸¯": 4534,
            "à¸°": 2705,
            "à¸±": 2417,
            "à¸²": 1955,
            "à¸³": 3409,
            "à¸´": 2575,
            "à¸µ": 2916,
            "à¸·": 3220,
            "à¸¸": 3172,
            "à¸¹": 3215,
            "à¸ģ": 2219,
            "à¸Ĥ": 3370,
            "à¸Ħ": 2720,
            "à¸ĩ": 2281,
            "à¸Ī": 2865,
            "à¸ī": 4870,
            "à¸Ĭ": 3076,
            "à¸ĭ": 4297,
            "à¸į": 3923,
            "à¸İ": 5534,
            "à¸ı": 3738,
            "à¸Ĳ": 4207,
            "à¸ĳ": 5535,
            "à¸Ĵ": 4000,
            "à¸ĵ": 3823,
            "à¸Ķ": 2651,
            "à¸ķ": 3039,
            "à¸ĸ": 3379,
            "à¸Ĺ": 3038,
            "à¸ĺ": 4138,
            "à¸Ļ": 2197,
            "à¸ļ": 2634,
            "à¸Ľ": 2839,
            "à¸ľ": 3571,
            "à¸Ŀ": 5516,
            "à¸ŀ": 2847,
            "à¸Ł": 3982,
            "à¸ł": 4423,
            "à¸Ń": 2464,
            "à¹": 1809,
            "à¹Ģ": 2536,
            "à¹ģ": 2994,
            "à¹Ĥ": 3513,
            "à¹ĥ": 4035,
            "à¹Ħ": 3865,
            "à¹Ĩ": 4846,
            "à¹ĩ": 3628,
            "à¹Ī": 2855,
            "à¹ī": 2869,
            "à¹Į": 3244,
            "à¹ĳ": 3496,
            "à¹Ĵ": 4140,
            "à¹ĵ": 4836,
            "à¹ķ": 4536,
            "à¹ĸ": 4537,
            "àº": 5514,
            "à¼": 5303,
            "à½": 4792,
            "àŃ": 5355,
            "á": 159,
            "á´": 4257,
            "á´Ĺ": 4433,
            "áµ": 5499,
            "áµķ": 5769,
            "á¸": 4339,
            "á¸¥": 5836,
            "á¸į": 5973,
            "á¹": 3698,
            "á¹Ĩ": 5874,
            "á¹ĩ": 5339,
            "á¹Ń": 5620,
            "áº": 4713,
            "á»": 3963,
            "á»ĩ": 5564,
            "áĢ": 4608,
            "áĥ": 5909,
            "áĲ": 5526,
            "áĹ": 5686,
            "â": 160,
            "â¤": 4877,
            "â¤´": 5341,
            "â¤µ": 5856,
            "â¬": 4638,
            "â¬ĩ": 5498,
            "â¬ľ": 5654,
            "â¸": 4655,
            "â¸ľ": 5655,
            "â¸Ŀ": 5058,
            "â»": 4956,
            "â»ĳ": 5272,
            "â¼": 3575,
            "â¼¤": 4943,
            "â¼Ģ": 5377,
            "â¼Ī": 4935,
            "â¼Ĭ": 5582,
            "â¼Ĵ": 4646,
            "â½": 3561,
            "â½£": 5007,
            "â½¤": 5368,
            "â½¬": 4588,
            "â½ħ": 5749,
            "â½ĩ": 5150,
            "â½ī": 5725,
            "â¾": 3834,
            "â¾¼": 5890,
            "â¾ĥ": 5442,
            "â¾ı": 5285,
            "â¾Ĵ": 5767,
            "â¿": 2540,
            "â¿°": 4060,
            "â¿±": 4061,
            "â¿²": 4062,
            "â¿³": 4063,
            "â¿´": 4064,
            "â¿µ": 4065,
            "â¿¶": 4066,
            "â¿·": 4067,
            "â¿¸": 4068,
            "â¿¹": 4069,
            "â¿º": 4070,
            "â¿»": 4057,
            "âĢ": 456,
            "âĢ¢": 2213,
            "âĢ¥": 2929,
            "âĢ¦": 694,
            "âĢ¨": 5434,
            "âĢª": 4839,
            "âĢ¬": 5219,
            "âĢ°": 5671,
            "âĢ²": 4699,
            "âĢ³": 4041,
            "âĢ¹": 5672,
            "âĢº": 4262,
            "âĢ»": 1169,
            "âĢ¼": 3113,
            "âĢ¿": 5673,
            "âĢĤ": 3958,
            "âĢĥ": 3835,
            "âĢī": 3713,
            "âĢĭ": 2730,
            "âĢĮ": 5085,
            "âĢį": 3825,
            "âĢİ": 3944,
            "âĢĲ": 3041,
            "âĢĵ": 2173,
            "âĢĶ": 2068,
            "âĢķ": 1601,
            "âĢĺ": 3148,
            "âĢĻ": 2289,
            "âĢļ": 5504,
            "âĢľ": 1200,
            "âĢĿ": 1016,
            "âĢŀ": 5435,
            "âĢŁ": 5343,
            "âĢł": 3439,
            "âģ": 3142,
            "âģ¡": 5834,
            "âģ°": 5789,
            "âģ¾": 4905,
            "âģĦ": 3498,
            "âģĩ": 5315,
            "âģĪ": 5995,
            "âģī": 4375,
            "âĤ": 5042,
            "âĤ¬": 4585,
            "âĥ": 5070,
            "âĦ": 2325,
            "âĦ¡": 5949,
            "âĦ¢": 3270,
            "âĦĥ": 2468,
            "âĦĵ": 4952,
            "âĦĸ": 5022,
            "âħ": 2513,
            "âħ¡": 3131,
            "âħ¢": 3495,
            "âħ£": 4185,
            "âħ¤": 4601,
            "âħ¥": 5107,
            "âħ¨": 4702,
            "âħ©": 4925,
            "âħł": 3398,
            "âĨ": 1372,
            "âĨĲ": 2552,
            "âĨĳ": 2612,
            "âĨĴ": 1632,
            "âĨĵ": 2275,
            "âĩ": 2504,
            "âĩĴ": 2553,
            "âĩĵ": 5950,
            "âĩĶ": 4401,
            "âĪ": 1831,
            "âĪ¥": 5926,
            "âĪ§": 5947,
            "âĪ©": 4278,
            "âĪ¬": 5948,
            "âĪ´": 5905,
            "âĪ¶": 5646,
            "âĪ¼": 5563,
            "âĪ½": 5509,
            "âĪĢ": 2396,
            "âĪĩ": 3435,
            "âĪĪ": 5138,
            "âĪĴ": 2225,
            "âĪĹ": 5178,
            "âĪļ": 5283,
            "âĪŀ": 3412,
            "âĪł": 4878,
            "âī": 2361,
            "âī¡": 3837,
            "âī¤": 4558,
            "âī¥": 4620,
            "âī¦": 3410,
            "âī§": 3438,
            "âīª": 3404,
            "âī«": 3246,
            "âīĪ": 5014,
            "âīĴ": 4147,
            "âīł": 4141,
            "âĬ": 3862,
            "âĬ·": 5710,
            "âĬ¿": 5296,
            "âĬĤ": 4437,
            "âĬķ": 5997,
            "âĭ": 4656,
            "âĭĨ": 5958,
            "âĮ": 3533,
            "âĮĴ": 3573,
            "âİ": 4642,
            "âİ¯": 4652,
            "âĳ": 1778,
            "âĳ¡": 2445,
            "âĳ¢": 2713,
            "âĳ£": 3120,
            "âĳ¤": 3457,
            "âĳ¥": 3826,
            "âĳ¦": 4180,
            "âĳ§": 4417,
            "âĳ¨": 4577,
            "âĳ©": 5048,
            "âĳª": 5418,
            "âĳ«": 5619,
            "âĳ¬": 5708,
            "âĳ´": 5946,
            "âĳµ": 5991,
            "âĳħ": 5495,
            "âĳł": 2370,
            "âĳŃ": 5829,
            "âĴ": 5793,
            "âĵ": 5075,
            "âĵĩ": 5598,
            "âĶ": 1665,
            "âĶ£": 3942,
            "âĶ³": 5925,
            "âĶĢ": 2155,
            "âĶģ": 2143,
            "âĶĤ": 3528,
            "âĶĥ": 3238,
            "âĶĪ": 3741,
            "âĶĮ": 5784,
            "âĶı": 5031,
            "âĶĲ": 5494,
            "âĶĵ": 5666,
            "âĶĶ": 3291,
            "âĶĹ": 4112,
            "âĶĺ": 5365,
            "âĶĽ": 5347,
            "âĶľ": 4033,
            "âķ": 4111,
            "âķ¯": 5340,
            "âķ°": 5317,
            "âķ¹": 5233,
            "âĸ": 1380,
            "âĸ¡": 3029,
            "âĸª": 5246,
            "âĸ²": 3043,
            "âĸ³": 3227,
            "âĸ¶": 3454,
            "âĸ·": 4841,
            "âĸ¸": 5456,
            "âĸ¹": 5923,
            "âĸ¼": 2458,
            "âĸ½": 2492,
            "âĸĪ": 3630,
            "âĸł": 1685,
            "âĹ": 1082,
            "âĹ¡": 4508,
            "âĹ¤": 5743,
            "âĹ¦": 5780,
            "âĹ¯": 3085,
            "âĹ¼": 5719,
            "âĹĨ": 1852,
            "âĹĩ": 2628,
            "âĹī": 4980,
            "âĹĭ": 1608,
            "âĹį": 5187,
            "âĹİ": 2477,
            "âĹı": 1722,
            "âĹł": 5744,
            "âĺ": 1229,
            "âĺª": 5593,
            "âĺº": 3619,
            "âĺ»": 5745,
            "âĺĢ": 4628,
            "âĺģ": 4922,
            "âĺħ": 1663,
            "âĺĨ": 1584,
            "âĺİ": 4684,
            "âĺĳ": 4885,
            "âĺĵ": 5720,
            "âĺĿ": 5098,
            "âĺŀ": 5577,
            "âĺŁ": 5746,
            "âĻ": 1330,
            "âĻ¡": 2371,
            "âĻ¥": 3170,
            "âĻ¦": 4512,
            "âĻ©": 4355,
            "âĻª": 1489,
            "âĻ«": 3971,
            "âĻ¬": 3961,
            "âĻ¯": 4796,
            "âĻĢ": 3688,
            "âĻĤ": 3822,
            "âĻŃ": 4293,
            "âļ": 4027,
            "âļ«": 5429,
            "âļł": 4915,
            "âĽ": 5214,
            "âľ": 2545,
            "âľ§": 4213,
            "âľ¨": 2937,
            "âľ©": 4842,
            "âľ°": 5092,
            "âľ¿": 4798,
            "âľħ": 5081,
            "âľĮ": 4874,
            "âľĵ": 5093,
            "âľĶ": 4886,
            "âľķ": 4887,
            "âľĸ": 5697,
            "âĿ": 2836,
            "âĿ£": 4383,
            "âĿ¤": 3393,
            "âĿ¶": 5953,
            "âĿĢ": 5284,
            "âĿģ": 5428,
            "âĿĵ": 5040,
            "âĿķ": 5482,
            "âĿĹ": 3712,
            "âĿĽ": 5348,
            "âŀ": 3943,
            "âŀ¡": 4276,
            "âł": 4848,
            "âłĢ": 5027,
            "âŃ": 3795,
            "âŃĲ": 3827,
            "ã": 161,
            "ãĢ": 239,
            "ãĢ½": 5193,
            "ãĢĢ": 567,
            "ãĢģ": 241,
            "ãĢĤ": 248,
            "ãĢĥ": 4125,
            "ãĢħ": 619,
            "ãĢĨ": 3854,
            "ãĢĩ": 2236,
            "ãĢĪ": 2367,
            "ãĢī": 2334,
            "ãĢĬ": 1934,
            "ãĢĭ": 1931,
            "ãĢĮ": 309,
            "ãĢį": 310,
            "ãĢİ": 572,
            "ãĢı": 574,
            "ãĢĲ": 772,
            "ãĢĳ": 777,
            "ãĢĴ": 2881,
            "ãĢĵ": 5320,
            "ãĢĶ": 2819,
            "ãĢķ": 2824,
            "ãĢľ": 1134,
            "ãĢĿ": 3306,
            "ãĢŀ": 4384,
            "ãĢŁ": 3459,
            "ãģ": 236,
            "ãģ¡": 344,
            "ãģ¢": 3266,
            "ãģ£": 261,
            "ãģ¤": 328,
            "ãģ¥": 990,
            "ãģ¦": 245,
            "ãģ§": 246,
            "ãģ¨": 247,
            "ãģ©": 317,
            "ãģª": 252,
            "ãģ«": 243,
            "ãģ¬": 1559,
            "ãģ®": 240,
            "ãģ¯": 253,
            "ãģ°": 409,
            "ãģ±": 1290,
            "ãģ²": 794,
            "ãģ³": 547,
            "ãģ´": 2062,
            "ãģµ": 1084,
            "ãģ¶": 807,
            "ãģ·": 1958,
            "ãģ¸": 588,
            "ãģ¹": 570,
            "ãģº": 2597,
            "ãģ»": 583,
            "ãģ¼": 1213,
            "ãģ½": 1710,
            "ãģ¾": 257,
            "ãģ¿": 357,
            "ãģģ": 1440,
            "ãģĤ": 277,
            "ãģĥ": 2760,
            "ãģĦ": 242,
            "ãģħ": 3059,
            "ãģĨ": 266,
            "ãģĩ": 2228,
            "ãģĪ": 319,
            "ãģī": 2690,
            "ãģĬ": 295,
            "ãģĭ": 260,
            "ãģĮ": 254,
            "ãģį": 282,
            "ãģİ": 870,
            "ãģı": 272,
            "ãģĲ": 804,
            "ãģĳ": 297,
            "ãģĴ": 594,
            "ãģĵ": 268,
            "ãģĶ": 398,
            "ãģķ": 273,
            "ãģĸ": 756,
            "ãģĹ": 244,
            "ãģĺ": 432,
            "ãģĻ": 255,
            "ãģļ": 479,
            "ãģĽ": 329,
            "ãģľ": 1074,
            "ãģĿ": 300,
            "ãģŀ": 1077,
            "ãģŁ": 249,
            "ãģł": 290,
            "ãģŃ": 529,
            "ãĤ": 237,
            "ãĤ¡": 685,
            "ãĤ¢": 298,
            "ãĤ£": 396,
            "ãĤ¤": 280,
            "ãĤ¥": 1692,
            "ãĤ¦": 400,
            "ãĤ§": 528,
            "ãĤ¨": 460,
            "ãĤ©": 747,
            "ãĤª": 435,
            "ãĤ«": 350,
            "ãĤ¬": 643,
            "ãĤ®": 781,
            "ãĤ¯": 299,
            "ãĤ°": 359,
            "ãĤ±": 589,
            "ãĤ²": 791,
            "ãĤ³": 363,
            "ãĤ´": 796,
            "ãĤµ": 386,
            "ãĤ¶": 714,
            "ãĤ·": 330,
            "ãĤ¸": 354,
            "ãĤ¹": 271,
            "ãĤº": 486,
            "ãĤ»": 492,
            "ãĤ¼": 1065,
            "ãĤ½": 647,
            "ãĤ¾": 1523,
            "ãĤ¿": 327,
            "ãĤĢ": 700,
            "ãĤģ": 316,
            "ãĤĤ": 264,
            "ãĤĥ": 638,
            "ãĤĦ": 318,
            "ãĤħ": 1716,
            "ãĤĨ": 1044,
            "ãĤĩ": 499,
            "ãĤĪ": 293,
            "ãĤī": 267,
            "ãĤĬ": 265,
            "ãĤĭ": 250,
            "ãĤĮ": 262,
            "ãĤį": 451,
            "ãĤİ": 5446,
            "ãĤı": 340,
            "ãĤĲ": 2779,
            "ãĤĳ": 4229,
            "ãĤĴ": 251,
            "ãĤĵ": 285,
            "ãĤĻ": 2079,
            "ãĤļ": 3518,
            "ãĤĽ": 4103,
            "ãĤľ": 2952,
            "ãĤĿ": 3025,
            "ãĤŀ": 2896,
            "ãĤŃ": 436,
            "ãĥ": 238,
            "ãĥ¡": 381,
            "ãĥ¢": 523,
            "ãĥ£": 453,
            "ãĥ¤": 872,
            "ãĥ¥": 450,
            "ãĥ¦": 962,
            "ãĥ§": 504,
            "ãĥ¨": 1140,
            "ãĥ©": 302,
            "ãĥª": 296,
            "ãĥ«": 279,
            "ãĥ¬": 321,
            "ãĥ®": 5289,
            "ãĥ¯": 628,
            "ãĥ°": 4546,
            "ãĥ±": 3537,
            "ãĥ²": 2661,
            "ãĥ³": 259,
            "ãĥ´": 911,
            "ãĥµ": 2625,
            "ãĥ¶": 1353,
            "ãĥ»": 305,
            "ãĥ¼": 256,
            "ãĥ½": 2854,
            "ãĥ¾": 3697,
            "ãĥĢ": 449,
            "ãĥģ": 423,
            "ãĥĤ": 3191,
            "ãĥĥ": 294,
            "ãĥĦ": 579,
            "ãĥħ": 3326,
            "ãĥĨ": 367,
            "ãĥĩ": 406,
            "ãĥĪ": 274,
            "ãĥī": 332,
            "ãĥĬ": 434,
            "ãĥĭ": 444,
            "ãĥĮ": 1605,
            "ãĥį": 545,
            "ãĥİ": 653,
            "ãĥı": 623,
            "ãĥĲ": 401,
            "ãĥĳ": 458,
            "ãĥĴ": 946,
            "ãĥĵ": 446,
            "ãĥĶ": 620,
            "ãĥķ": 338,
            "ãĥĸ": 426,
            "ãĥĹ": 343,
            "ãĥĺ": 987,
            "ãĥĻ": 559,
            "ãĥļ": 641,
            "ãĥĽ": 677,
            "ãĥľ": 649,
            "ãĥĿ": 562,
            "ãĥŀ": 384,
            "ãĥŁ": 503,
            "ãĥł": 399,
            "ãĥŃ": 342,
            "ãĦ": 5701,
            "ãħ": 3789,
            "ãħ¤": 4020,
            "ãħĤ": 5111,
            "ãĨ": 4340,
            "ãĨĳ": 5057,
            "ãĨĴ": 5632,
            "ãĨĵ": 5633,
            "ãĩ": 4450,
            "ãĩ»": 4960,
            "ãĩ½": 5606,
            "ãĪ": 3622,
            "ãĪ°": 5972,
            "ãĪ±": 3777,
            "ãī": 5249,
            "ãĬ": 3232,
            "ãĬ°": 3520,
            "ãĬĸ": 3996,
            "ãĮ": 4009,
            "ãĮ§": 5956,
            "ãĮ½": 4592,
            "ãĮĶ": 5621,
            "ãį": 4145,
            "ãįį": 4255,
            "ãİ": 2475,
            "ãİ¡": 2941,
            "ãİİ": 5091,
            "ãİı": 3903,
            "ãİľ": 4099,
            "ãİĿ": 3359,
            "ãİŀ": 3973,
            "ãı": 5752,
            "ä": 162,
            "ä¸": 263,
            "ä¸¡": 1130,
            "ä¸¦": 1460,
            "ä¸ª": 4850,
            "ä¸²": 3026,
            "ä¸¸": 1610,
            "ä¸¹": 2066,
            "ä¸º": 4833,
            "ä¸»": 658,
            "ä¸¼": 2550,
            "ä¸½": 5263,
            "ä¸¿": 4897,
            "ä¸Ģ": 366,
            "ä¸ģ": 1533,
            "ä¸ĥ": 1840,
            "ä¸ĩ": 832,
            "ä¸Ī": 1701,
            "ä¸ī": 824,
            "ä¸Ĭ": 405,
            "ä¸ĭ": 532,
            "ä¸į": 636,
            "ä¸İ": 1102,
            "ä¸ĳ": 4288,
            "ä¸ĵ": 5084,
            "ä¸Ķ": 3219,
            "ä¸ķ": 5393,
            "ä¸ĸ": 637,
            "ä¸ĺ": 2110,
            "ä¸Ļ": 4244,
            "ä¸ļ": 5863,
            "ä¸ľ": 4559,
            "ä¸Ŀ": 5204,
            "ä¸ŀ": 3640,
            "ä¸Ń": 378,
            "ä¹": 618,
            "ä¹¦": 5900,
            "ä¹±": 1666,
            "ä¹³": 1607,
            "ä¹¾": 1795,
            "ä¹ĥ": 2355,
            "ä¹ħ": 1325,
            "ä¹Ī": 5819,
            "ä¹ī": 5548,
            "ä¹ĭ": 1848,
            "ä¹į": 5802,
            "ä¹İ": 4858,
            "ä¹ı": 2606,
            "ä¹ĸ": 3881,
            "ä¹Ĺ": 1050,
            "ä¹ĺ": 5871,
            "ä¹Ļ": 2603,
            "ä¹Ŀ": 1542,
            "ä¹ŀ": 3523,
            "ä¹Ł": 2238,
            "äº": 269,
            "äº¡": 1596,
            "äº¢": 4458,
            "äº¤": 878,
            "äº¥": 3581,
            "äº¦": 4345,
            "äº§": 3665,
            "äº¨": 3947,
            "äº«": 2568,
            "äº¬": 738,
            "äº®": 2879,
            "äº°": 3870,
            "äº²": 4472,
            "äºº": 312,
            "äºĢ": 2331,
            "äºĤ": 5100,
            "äºĨ": 1092,
            "äºĪ": 699,
            "äºī": 1243,
            "äºĭ": 375,
            "äºĮ": 859,
            "äºİ": 3591,
            "äºĳ": 2485,
            "äºĴ": 1656,
            "äºĶ": 1451,
            "äºķ": 1216,
            "äºĺ": 3295,
            "äºĻ": 5461,
            "äºļ": 3674,
            "äºĽ": 3124,
            "äºľ": 2170,
            "äºŀ": 4992,
            "äºŃ": 2592,
            "ä»": 281,
            "ä»£": 530,
            "ä»¤": 1456,
            "ä»¥": 537,
            "ä»¬": 5864,
            "ä»®": 1543,
            "ä»°": 2178,
            "ä»²": 1506,
            "ä»¶": 895,
            "ä»»": 948,
            "ä»½": 5195,
            "ä»Ģ": 4202,
            "ä»ģ": 2176,
            "ä»Ħ": 4609,
            "ä»Ĩ": 5447,
            "ä»ĩ": 3714,
            "ä»Ĭ": 490,
            "ä»ĭ": 782,
            "ä»İ": 5936,
            "ä»ı": 1879,
            "ä»Ķ": 3352,
            "ä»ķ": 734,
            "ä»ĸ": 731,
            "ä»Ĺ": 5865,
            "ä»ĺ": 670,
            "ä»Ļ": 1971,
            "ä¼": 325,
            "ä¼¦": 5215,
            "ä¼¯": 2231,
            "ä¼´": 1624,
            "ä¼¶": 5773,
            "ä¼¸": 1703,
            "ä¼º": 2127,
            "ä¼¼": 1569,
            "ä¼½": 3456,
            "ä¼ģ": 973,
            "ä¼Ĭ": 1482,
            "ä¼į": 3751,
            "ä¼İ": 2772,
            "ä¼ı": 2171,
            "ä¼Ĳ": 2781,
            "ä¼ĳ": 1162,
            "ä¼ĺ": 5608,
            "ä¼ļ": 394,
            "ä¼Ŀ": 893,
            "ä½": 287,
            "ä½©": 3993,
            "ä½³": 2703,
            "ä½µ": 1713,
            "ä½¼": 4653,
            "ä½¿": 517,
            "ä½ĥ": 4182,
            "ä½Ĩ": 2565,
            "ä½ĩ": 3585,
            "ä½į": 785,
            "ä½İ": 1137,
            "ä½ı": 905,
            "ä½Ĳ": 1411,
            "ä½ĳ": 3296,
            "ä½ĵ": 489,
            "ä½ķ": 616,
            "ä½Ļ": 1446,
            "ä½Ľ": 3662,
            "ä½ľ": 439,
            "ä½ł": 4947,
            "ä¾": 452,
            "ä¾¡": 799,
            "ä¾®": 3360,
            "ä¾¯": 2556,
            "ä¾µ": 1942,
            "ä¾¶": 3255,
            "ä¾¿": 1193,
            "ä¾ĥ": 5588,
            "ä¾Ĩ": 3268,
            "ä¾Ī": 5799,
            "ä¾ĭ": 982,
            "ä¾į": 2700,
            "ä¾ĳ": 4353,
            "ä¾ĺ": 5342,
            "ä¾Ľ": 819,
            "ä¾Ŀ": 1457,
            "ä¾ł": 4190,
            "ä¿": 402,
            "ä¿¡": 704,
            "ä¿£": 3345,
            "ä¿®": 1070,
            "ä¿¯": 3514,
            "ä¿³": 2001,
            "ä¿µ": 3182,
            "ä¿¸": 3540,
            "ä¿º": 1548,
            "ä¿Ĥ": 959,
            "ä¿ĥ": 1917,
            "ä¿Ħ": 4210,
            "ä¿Ĭ": 2400,
            "ä¿İ": 5409,
            "ä¿Ĺ": 2025,
            "ä¿ĺ": 4813,
            "ä¿Ŀ": 682,
            "ä¿Ł": 4823,
            "ä¿ł": 5941,
            "å": 163,
            "å¡": 972,
            "å¡©": 1827,
            "å¡«": 3107,
            "å¡µ": 2955,
            "å¡¹": 4151,
            "å¡¾": 2054,
            "å¡Ģ": 3536,
            "å¡ģ": 2084,
            "å¡Ĭ": 2845,
            "å¡ĳ": 4291,
            "å¡Ķ": 2247,
            "å¡Ĺ": 1762,
            "å¡ĺ": 4444,
            "å¡Ļ": 4826,
            "å¡ļ": 1895,
            "å¡ŀ": 2323,
            "å¢": 664,
            "å¢¨": 2777,
            "å¢³": 2356,
            "å¢º": 5096,
            "å¢»": 5779,
            "å¢¾": 4080,
            "å¢ĥ": 1083,
            "å¢Ĭ": 5920,
            "å¢ĵ": 1532,
            "å¢Ĺ": 934,
            "å¢ľ": 2729,
            "å¢Ł": 3512,
            "å£": 466,
            "å£«": 891,
            "å£¬": 3953,
            "å£®": 2689,
            "å£°": 1133,
            "å£±": 3222,
            "å£²": 680,
            "å£·": 4374,
            "å£¹": 5423,
            "å£º": 3517,
            "å£½": 3985,
            "å£ģ": 1683,
            "å£ĩ": 2463,
            "å£Ĭ": 1627,
            "å£Į": 2959,
            "å£ķ": 3646,
            "å£Ļ": 5278,
            "å¤": 276,
            "å¤¢": 1535,
            "å¤¥": 5051,
            "å¤§": 331,
            "å¤©": 865,
            "å¤ª": 1122,
            "å¤«": 1152,
            "å¤®": 1507,
            "å¤±": 1163,
            "å¤´": 5407,
            "å¤·": 3104,
            "å¤¾": 5794,
            "å¤Ħ": 5378,
            "å¤ī": 581,
            "å¤ı": 1328,
            "å¤ķ": 1828,
            "å¤ĸ": 617,
            "å¤Ļ": 5542,
            "å¤ļ": 506,
            "å¤ľ": 1178,
            "å¤Ń": 4368,
            "å¥": 418,
            "å¥¢": 3467,
            "å¥¥": 1709,
            "å¥§": 5157,
            "å¥¨": 2064,
            "å¥ª": 1925,
            "å¥®": 2322,
            "å¥³": 604,
            "å¥´": 2005,
            "å¥¶": 4753,
            "å¥¸": 4404,
            "å¥¹": 5587,
            "å¥½": 837,
            "å¥Ħ": 3475,
            "å¥ĩ": 1930,
            "å¥Ī": 1427,
            "å¥ī": 2218,
            "å¥ĭ": 5382,
            "å¥İ": 5881,
            "å¥ı": 1594,
            "å¥ĳ": 1342,
            "å¥Ķ": 3322,
            "å¥ķ": 4738,
            "å¥Ĺ": 4165,
            "å¥ĺ": 5227,
            "å¥ł": 4623,
            "å¦": 926,
            "å¦¤": 5643,
            "å¦¥": 2616,
            "å¦¨": 2580,
            "å¦¬": 3099,
            "å¦¹": 1996,
            "å¦º": 5677,
            "å¦»": 1493,
            "å¦¾": 3856,
            "å¦Ĥ": 2126,
            "å¦ĥ": 2753,
            "å¦Ħ": 2834,
            "å¦ĩ": 4768,
            "å¦Ĭ": 1817,
            "å¦į": 5244,
            "å¦ĵ": 3924,
            "å¦ĸ": 2471,
            "å¦Ļ": 1982,
            "å§": 590,
            "å§¥": 5062,
            "å§¦": 2930,
            "å§¨": 5396,
            "å§ª": 3443,
            "å§«": 2123,
            "å§¬": 5344,
            "å§¶": 4700,
            "å§»": 3216,
            "å§¿": 1359,
            "å§ī": 1932,
            "å§ĭ": 762,
            "å§Ĳ": 4246,
            "å§ĳ": 3706,
            "å§ĵ": 2394,
            "å§Ķ": 1305,
            "å§ļ": 3004,
            "å§ľ": 3448,
            "å¨": 1282,
            "å¨¥": 5189,
            "å¨©": 3779,
            "å¨¯": 3205,
            "å¨¶": 4615,
            "å¨¼": 3880,
            "å¨ģ": 2080,
            "å¨ĥ": 4462,
            "å¨į": 5763,
            "å¨ĺ": 1693,
            "å¨Ł": 5479,
            "å¨ł": 2071,
            "å©": 941,
            "å©¢": 5592,
            "å©¦": 1660,
            "å©·": 4566,
            "å©¿": 3487,
            "å©ģ": 4507,
            "å©Ĩ": 3058,
            "å©ķ": 5622,
            "å©ļ": 1087,
            "åª": 1993,
            "åªĴ": 2366,
            "åªļ": 3559,
            "åªĽ": 2409,
            "å«": 1412,
            "å«¡": 3240,
            "å«¦": 5924,
            "å«©": 5561,
            "å«ģ": 2244,
            "å«Ĥ": 5828,
            "å«ī": 3173,
            "å«Į": 1581,
            "å¬": 1527,
            "å¬¢": 2572,
            "å¬ª": 5402,
            "å¬¬": 5338,
            "å¬°": 4606,
            "å¬²": 3833,
            "å¬ī": 1646,
            "å¬Į": 3938,
            "å®": 278,
            "å®¢": 827,
            "å®£": 1724,
            "å®¤": 1069,
            "å®¥": 3828,
            "å®¦": 4973,
            "å®«": 5304,
            "å®®": 1136,
            "å®°": 2678,
            "å®³": 1005,
            "å®´": 2609,
            "å®µ": 3787,
            "å®¶": 561,
            "å®¸": 5472,
            "å®¹": 820,
            "å®¿": 1416,
            "å®ħ": 1144,
            "å®ĩ": 1655,
            "å®Ī": 1232,
            "å®ī": 615,
            "å®ĭ": 3015,
            "å®Į": 1049,
            "å®į": 4318,
            "å®ı": 2768,
            "å®ķ": 3866,
            "å®Ĺ": 1662,
            "å®ĺ": 1257,
            "å®Ļ": 1914,
            "å®ļ": 445,
            "å®Ľ": 2635,
            "å®ľ": 2183,
            "å®Ŀ": 1753,
            "å®ŀ": 5714,
            "å®Ł": 488,
            "å¯": 383,
            "å¯¡": 3555,
            "å¯¥": 5915,
            "å¯¦": 3757,
            "å¯§": 1903,
            "å¯¨": 5609,
            "å¯©": 1550,
            "å¯«": 5207,
            "å¯¬": 5144,
            "å¯®": 2660,
            "å¯µ": 3686,
            "å¯¶": 5053,
            "å¯¸": 2516,
            "å¯¹": 4734,
            "å¯º": 1405,
            "å¯¾": 496,
            "å¯¿": 1900,
            "å¯Ĥ": 2450,
            "å¯Ħ": 1259,
            "å¯ħ": 3209,
            "å¯Ĩ": 1479,
            "å¯ĩ": 4014,
            "å¯Į": 1318,
            "å¯Ĵ": 1801,
            "å¯ĵ": 3991,
            "å¯Ľ": 2326,
            "å¯Ŀ": 1549,
            "å¯Ł": 1366,
            "å°": 371,
            "å°¤": 4599,
            "å°±": 1362,
            "å°¸": 4889,
            "å°¹": 3402,
            "å°º": 2861,
            "å°»": 2191,
            "å°¼": 2833,
            "å°½": 2057,
            "å°¾": 1623,
            "å°¿": 2087,
            "å°ģ": 2045,
            "å°Ĥ": 1032,
            "å°Ħ": 1510,
            "å°Ĩ": 1350,
            "å°ĩ": 5060,
            "å°Ī": 4919,
            "å°ī": 2695,
            "å°Ĭ": 1994,
            "å°ĭ": 2287,
            "å°į": 4333,
            "å°İ": 1109,
            "å°ı": 657,
            "å°ĳ": 695,
            "å°Ķ": 5939,
            "å°ĸ": 3064,
            "å°ļ": 2223,
            "å±": 390,
            "å±¡": 5940,
            "å±¤": 1588,
            "å±¥": 1893,
            "å±¬": 5095,
            "å±¯": 3263,
            "å±±": 671,
            "å±Ģ": 1125,
            "å±ģ": 4194,
            "å±ħ": 1272,
            "å±Ī": 2272,
            "å±Ĭ": 1288,
            "å±ĭ": 844,
            "å±į": 3968,
            "å±İ": 5776,
            "å±ı": 3920,
            "å±ĳ": 4158,
            "å±ĵ": 4045,
            "å±ķ": 1035,
            "å±ŀ": 1139,
            "å±ł": 4364,
            "å²": 789,
            "å²¡": 1076,
            "å²©": 1634,
            "å²¬": 3248,
            "å²±": 4670,
            "å²³": 2380,
            "å²¸": 1750,
            "å²Ĳ": 1823,
            "å²ĳ": 5966,
            "å²Ľ": 5718,
            "å³": 770,
            "å³¡": 2662,
            "å³¨": 3485,
            "å³¯": 3455,
            "å³°": 2487,
            "å³¶": 810,
            "å³»": 3895,
            "å³Ļ": 3430,
            "å³ł": 2864,
            "å´": 1111,
            "å´©": 1908,
            "å´ĩ": 2736,
            "å´ĭ": 4489,
            "å´İ": 1263,
            "å´ĳ": 4426,
            "å´Ķ": 4163,
            "å´ĸ": 3138,
            "å´Ĺ": 4084,
            "å´Ļ": 4553,
            "åµ": 2304,
            "åµ©": 3654,
            "åµ¯": 3563,
            "åµĮ": 3692,
            "åµĲ": 2529,
            "åµľ": 4951,
            "å¶": 2338,
            "å¶º": 3199,
            "å¶¼": 4023,
            "å¶½": 3617,
            "å¶ĭ": 2642,
            "å¶Į": 5376,
            "å·": 431,
            "å·¡": 1846,
            "å·£": 2376,
            "å·¥": 838,
            "å·¦": 1477,
            "å·§": 2734,
            "å·¨": 1841,
            "å·«": 3701,
            "å·®": 1218,
            "å·±": 1612,
            "å·²": 4539,
            "å·³": 3413,
            "å·´": 3574,
            "å··": 3474,
            "å·»": 1463,
            "å·½": 4397,
            "å·¾": 3280,
            "å·Į": 3770,
            "å·ĸ": 5196,
            "å·Ŀ": 774,
            "å·ŀ": 1095,
            "å¸": 351,
            "å¸¥": 3371,
            "å¸¦": 5938,
            "å¸«": 984,
            "å¸¯": 1210,
            "å¸°": 1138,
            "å¸³": 2117,
            "å¸¸": 773,
            "å¸½": 2447,
            "å¸Ĥ": 527,
            "å¸ĥ": 1408,
            "å¸Ĩ": 3081,
            "å¸Ī": 5290,
            "å¸Į": 1316,
            "å¸ĸ": 3348,
            "å¸Ľ": 5216,
            "å¸Ŀ": 1628,
            "å¸Ń": 1421,
            "å¹": 289,
            "å¹¡": 2413,
            "å¹£": 2741,
            "å¹²": 1964,
            "å¹³": 767,
            "å¹´": 303,
            "å¹¶": 4373,
            "å¹¸": 1311,
            "å¹¹": 1843,
            "å¹»": 2405,
            "å¹¼": 1732,
            "å¹½": 2954,
            "å¹¾": 2245,
            "å¹¿": 4974,
            "å¹Ģ": 5101,
            "å¹ħ": 1464,
            "å¹ĩ": 4461,
            "å¹Į": 1894,
            "å¹ķ": 1715,
            "å¹Ł": 4385,
            "åº": 326,
            "åº¦": 546,
            "åº§": 1086,
            "åº«": 1390,
            "åºµ": 2983,
            "åº¶": 2793,
            "åº·": 1078,
            "åº¸": 3889,
            "åº¾": 5102,
            "åºģ": 1789,
            "åºĥ": 853,
            "åºĦ": 2600,
            "åºĩ": 3440,
            "åºĬ": 1759,
            "åºı": 2185,
            "åºķ": 1672,
            "åºĸ": 5448,
            "åºĹ": 624,
            "åºļ": 4109,
            "åºľ": 1106,
            "åºŃ": 1483,
            "å»": 733,
            "å»£": 3269,
            "å»¬": 5386,
            "å»¶": 1566,
            "å»·": 2538,
            "å»º": 947,
            "å»»": 2949,
            "å»¿": 4094,
            "å»ĥ": 1534,
            "å»ī": 3339,
            "å»Ĭ": 2825,
            "å»ĵ": 4739,
            "å»ĸ": 5901,
            "å»Ļ": 5199,
            "å»Ł": 3353,
            "å»ł": 3449,
            "å¼": 385,
            "å¼¥": 2457,
            "å¼¦": 2412,
            "å¼§": 3137,
            "å¼©": 4867,
            "å¼¯": 5156,
            "å¼±": 1698,
            "å¼µ": 1007,
            "å¼·": 758,
            "å¼º": 4533,
            "å¼¼": 4520,
            "å¼¾": 1505,
            "å¼Ģ": 5306,
            "å¼ģ": 1484,
            "å¼ĥ": 5916,
            "å¼Ħ": 3072,
            "å¼Ĭ": 1814,
            "å¼ĭ": 5527,
            "å¼ı": 730,
            "å¼Ĳ": 3788,
            "å¼ĵ": 2790,
            "å¼Ķ": 3479,
            "å¼ķ": 776,
            "å¼Ĺ": 4721,
            "å¼ĺ": 2211,
            "å¼Ľ": 4203,
            "å¼Ł": 1726,
            "å¼ł": 5983,
            "å½": 349,
            "å½¡": 3810,
            "å½¢": 833,
            "å½¦": 2163,
            "å½©": 1977,
            "å½ª": 4822,
            "å½«": 2425,
            "å½¬": 4224,
            "å½°": 2383,
            "å½±": 970,
            "å½·": 3502,
            "å½¹": 945,
            "å½¼": 798,
            "å½¿": 3724,
            "å½ħ": 4618,
            "å½Ĭ": 5845,
            "å½Į": 3972,
            "å½ĵ": 491,
            "å½Ĺ": 2876,
            "å½Ļ": 3210,
            "å½Ń": 4547,
            "å¾": 324,
            "å¾¡": 1205,
            "å¾¨": 4296,
            "å¾©": 1172,
            "å¾ª": 2459,
            "å¾®": 1870,
            "å¾³": 1635,
            "å¾´": 1333,
            "å¾·": 4189,
            "å¾¹": 1928,
            "å¾½": 3694,
            "å¾Ģ": 2305,
            "å¾ģ": 2319,
            "å¾Ĥ": 5112,
            "å¾Ħ": 2257,
            "å¾ħ": 983,
            "å¾Ī": 5658,
            "å¾Ĭ": 3793,
            "å¾ĭ": 1565,
            "å¾Į": 462,
            "å¾Ĳ": 2122,
            "å¾Ĵ": 1392,
            "å¾ĵ": 1268,
            "å¾Ĺ": 726,
            "å¾ĺ": 3791,
            "å¾ŀ": 4403,
            "å¾ł": 4957,
            "å¿": 353,
            "å¿«": 1597,
            "å¿µ": 1058,
            "å¿½": 4038,
            "å¿ĥ": 575,
            "å¿ħ": 656,
            "å¿Į": 3003,
            "å¿į": 2443,
            "å¿ĸ": 4350,
            "å¿Ĺ": 1521,
            "å¿ĺ": 1582,
            "å¿Ļ": 1975,
            "å¿ľ": 735,
            "å¿ł": 2093,
            "åĢ": 508,
            "åĢ£": 3115,
            "åĢ¤": 1047,
            "åĢ¦": 3765,
            "åĢ«": 1887,
            "åĢ¶": 2728,
            "åĢ¹": 4386,
            "åĢħ": 5691,
            "åĢī": 1586,
            "åĢĭ": 849,
            "åĢį": 1595,
            "åĢĳ": 5589,
            "åĢĴ": 1466,
            "åĢĸ": 4225,
            "åĢĻ": 1613,
            "åĢŁ": 1417,
            "åĢŃ": 3648,
            "åģ": 646,
            "åģ¥": 988,
            "åģ²": 3836,
            "åģ´": 1067,
            "åģµ": 2048,
            "åģ¶": 2203,
            "åģ·": 4474,
            "åģ½": 2061,
            "åģĩ": 5146,
            "åģĪ": 5475,
            "åģī": 2473,
            "åģı": 2306,
            "åģķ": 4747,
            "åģļ": 3804,
            "åģľ": 1557,
            "åĤ": 518,
            "åĤ¬": 771,
            "åĤ²": 3702,
            "åĤ³": 3469,
            "åĤµ": 1851,
            "åĤ·": 1576,
            "åĤ¾": 1727,
            "åĤĢ": 4177,
            "åĤħ": 4705,
            "åĤį": 2518,
            "åĤĳ": 2919,
            "åĤĺ": 2372,
            "åĤĻ": 816,
            "åĤŃ": 3755,
            "åĥ": 644,
            "åĥ§": 2560,
            "åĥ¹": 5848,
            "åĥ»": 4399,
            "åĥħ": 2835,
            "åĥĬ": 3501,
            "åĥį": 1018,
            "åĥı": 980,
            "åĥĳ": 4179,
            "åĥķ": 1298,
            "åĥļ": 2224,
            "åĥŃ": 4183,
            "åĦ": 740,
            "åĦ¡": 4227,
            "åĦª": 909,
            "åĦ²": 2671,
            "åĦº": 5300,
            "åĦĢ": 1969,
            "åĦĦ": 1640,
            "åĦĴ": 3302,
            "åĦĺ": 4682,
            "åĦļ": 4315,
            "åĦŁ": 1981,
            "åħ": 284,
            "åħ¢": 5143,
            "åħ¥": 428,
            "åħ§": 4208,
            "åħ¨": 515,
            "åħ©": 5912,
            "åħª": 4724,
            "åħ«": 1491,
            "åħ¬": 688,
            "åħ®": 4704,
            "åħ°": 5501,
            "åħ±": 867,
            "åħ³": 4390,
            "åħ´": 5108,
            "åħµ": 1228,
            "åħ¶": 2910,
            "åħ·": 1167,
            "åħ¸": 1553,
            "åħ¼": 1878,
            "åħģ": 4008,
            "åħĥ": 786,
            "åħĦ": 1761,
            "åħħ": 1502,
            "åħĨ": 2411,
            "åħĪ": 701,
            "åħī": 999,
            "åħĭ": 2496,
            "åħĮ": 4883,
            "åħį": 1755,
            "åħİ": 3386,
            "åħĲ": 1338,
            "åħĴ": 4370,
            "åħĹ": 4999,
            "åħļ": 1270,
            "åħľ": 3747,
            "åħŃ": 1782,
            "åĨ": 361,
            "åĨ¤": 3914,
            "åĨ¥": 3274,
            "åĨ¨": 3584,
            "åĨª": 4173,
            "åĨ¬": 1641,
            "åĨ²": 4664,
            "åĨ´": 3684,
            "åĨµ": 5755,
            "åĨ¶": 3660,
            "åĨ·": 1481,
            "åĨĢ": 4969,
            "åĨħ": 512,
            "åĨĨ": 746,
            "åĨĬ": 2027,
            "åĨį": 960,
            "åĨı": 5979,
            "åĨĳ": 3805,
            "åĨĴ": 2172,
            "åĨĹ": 3024,
            "åĨĻ": 978,
            "åĨł": 2270,
            "åĩ": 356,
            "åĩ¡": 2908,
            "åĩ¦": 1188,
            "åĩ§": 4133,
            "åĩª": 3669,
            "åĩ°": 3699,
            "åĩ±": 3372,
            "åĩ¶": 3048,
            "åĩ¸": 3093,
            "åĩ¹": 3118,
            "åĩº": 374,
            "åĩ½": 2480,
            "åĩĦ": 2107,
            "åĩĨ": 2669,
            "åĩī": 5913,
            "åĩĭ": 4578,
            "åĩĮ": 3195,
            "åĩį": 2208,
            "åĩĸ": 5356,
            "åĩĽ": 3251,
            "åĩľ": 4567,
            "åĩĿ": 2526,
            "åĩł": 4602,
            "åĩŃ": 4737,
            "åĪ": 286,
            "åĪ¤": 971,
            "åĪ¥": 783,
            "åĪ©": 586,
            "åĪ«": 4083,
            "åĪ°": 1694,
            "åĪ³": 5422,
            "åĪ¶": 743,
            "åĪ·": 1952,
            "åĪ¸": 1702,
            "åĪ¹": 3912,
            "åĪº": 1714,
            "åĪ»": 1735,
            "åĪĢ": 2258,
            "åĪĥ": 2585,
            "åĪĨ": 382,
            "åĪĩ": 745,
            "åĪĪ": 2756,
            "åĪĬ": 1652,
            "åĪİ": 4968,
            "åĪĳ": 1745,
            "åĪĹ": 1337,
            "åĪĿ": 652,
            "åī": 397,
            "åī£": 1926,
            "åī¤": 1536,
            "åī¥": 2665,
            "åī§": 5880,
            "åīª": 3910,
            "åī¯": 1598,
            "åī°": 2454,
            "åī±": 5894,
            "åī²": 1094,
            "åīµ": 1310,
            "åīĥ": 3103,
            "åīĩ": 1636,
            "åīĬ": 1638,
            "åīĭ": 5334,
            "åīĮ": 5450,
            "åīį": 480,
            "åīĸ": 3102,
            "åīĽ": 2537,
            "åĬ": 345,
            "åĬ¡": 5543,
            "åĬ£": 2212,
            "åĬ¨": 5206,
            "åĬ©": 1214,
            "åĬª": 1706,
            "åĬ«": 3715,
            "åĬ±": 2232,
            "åĬ´": 1235,
            "åĬ¹": 852,
            "åĬ¾": 4357,
            "åĬĩ": 1445,
            "åĬī": 2970,
            "åĬĶ": 5273,
            "åĬĽ": 550,
            "åĬŀ": 5733,
            "åĬŁ": 1424,
            "åĬł": 605,
            "åĭ": 341,
            "åĭ¢": 1223,
            "åĭ¤": 1437,
            "åĭ§": 1705,
            "åĭ²": 2658,
            "åĭ¾": 3158,
            "åĭ¿": 2607,
            "åĭģ": 5978,
            "åĭĥ": 2551,
            "åĭħ": 3079,
            "åĭĩ": 2046,
            "åĭī": 1465,
            "åĭĴ": 3876,
            "åĭķ": 467,
            "åĭĺ": 2297,
            "åĭĻ": 737,
            "åĭĿ": 910,
            "åĭŁ": 1423,
            "åĮ": 392,
            "åĮ¡": 4152,
            "åĮ¹": 2395,
            "åĮº": 809,
            "åĮ»": 932,
            "åĮ¿": 2829,
            "åĮĤ": 2687,
            "åĮħ": 1785,
            "åĮĪ": 4377,
            "åĮį": 5357,
            "åĮĲ": 5449,
            "åĮĸ": 573,
            "åĮĹ": 843,
            "åĮĻ": 5374,
            "åĮľ": 5503,
            "åĮĿ": 4259,
            "åĮł": 2384,
            "åį": 373,
            "åį¡": 4369,
            "åį¦": 4690,
            "åį¯": 4054,
            "åį°": 1254,
            "åį±": 1519,
            "åį³": 1779,
            "åį´": 1728,
            "åįµ": 2052,
            "åį·": 4563,
            "åį¸": 2828,
            "åį¿": 2758,
            "åįĢ": 5258,
            "åįģ": 1071,
            "åįĥ": 1242,
            "åįĩ": 3855,
            "åįĪ": 1560,
            "åįī": 4714,
            "åįĬ": 992,
            "åįį": 4250,
            "åįĳ": 2951,
            "åįĴ": 1124,
            "åįĵ": 2363,
            "åįĶ": 1128,
            "åįĹ": 1021,
            "åįĺ": 933,
            "åįļ": 1497,
            "åįľ": 4550,
            "åįŀ": 5775,
            "åįł": 1563,
            "åİ": 587,
            "åİ¦": 5571,
            "åİ¨": 3273,
            "åİ©": 3127,
            "åİ³": 1575,
            "åİ»": 1164,
            "åİ¿": 5818,
            "åİĦ": 2985,
            "åİĺ": 4766,
            "åİļ": 1677,
            "åİŁ": 751,
            "åİŃ": 3776,
            "åı": 283,
            "åı¡": 3488,
            "åı¢": 3675,
            "åı£": 792,
            "åı¤": 944,
            "åı¥": 2092,
            "åı©": 2427,
            "åıª": 3096,
            "åı«": 2483,
            "åı¬": 2375,
            "åı¯": 669,
            "åı°": 949,
            "åı±": 3071,
            "åı²": 1120,
            "åı³": 1415,
            "åı¶": 2439,
            "åı·": 908,
            "åı¸": 1331,
            "åıĤ": 693,
            "åıĥ": 4325,
            "åıĪ": 1854,
            "åıī": 3651,
            "åıĬ": 877,
            "åıĭ": 1158,
            "åıĮ": 2109,
            "åıį": 1024,
            "åıİ": 904,
            "åıĳ": 4866,
            "åıĶ": 2923,
            "åıĸ": 540,
            "åıĹ": 602,
            "åıĺ": 5842,
            "åıĻ": 2693,
            "åıĽ": 4093,
            "åıŁ": 5795,
            "åıŃ": 5911,
            "åĲ": 288,
            "åĲ¦": 1699,
            "åĲ§": 5866,
            "åĲ«": 1056,
            "åĲ¸": 1631,
            "åĲ¹": 1881,
            "åĲ»": 3842,
            "åĲ¼": 5379,
            "åĲ½": 5321,
            "åĲ¾": 2455,
            "åĲĥ": 3984,
            "åĲĦ": 996,
            "åĲĪ": 388,
            "åĲī": 1472,
            "åĲĬ": 2938,
            "åĲĮ": 535,
            "åĲį": 558,
            "åĲİ": 2873,
            "åĲı": 3233,
            "åĲĲ": 2336,
            "åĲĳ": 681,
            "åĲĽ": 1673,
            "åĲŁ": 3080,
            "åĲł": 3378,
            "åĳ": 433,
            "åĳ¨": 997,
            "åĳª": 2626,
            "åĳ³": 718,
            "åĳµ": 4754,
            "åĳ»": 4725,
            "åĳ¼": 1026,
            "åĳ½": 1059,
            "åĳĤ": 1986,
            "åĳĨ": 3109,
            "åĳĪ": 2692,
            "åĳī": 2818,
            "åĳĬ": 1009,
            "åĳĳ": 2971,
            "åĳĹ": 5545,
            "åĳĺ": 5035,
            "åĳŁ": 3586,
            "åĴ": 741,
            "åĴ¤": 4406,
            "åĴ¥": 4199,
            "åĴ©": 5850,
            "åĴ«": 5489,
            "åĴ¬": 3709,
            "åĴ²": 2075,
            "åĴ³": 3213,
            "åĴ¸": 3922,
            "åĴ½": 3615,
            "åĴĢ": 4381,
            "åĴĦ": 4195,
            "åĴĨ": 4440,
            "åĴĭ": 4767,
            "åĴĮ": 780,
            "åĴİ": 3873,
            "åĴĴ": 5220,
            "åĵ": 420,
            "åĵ¡": 690,
            "åĵ¥": 4134,
            "åĵ¨": 3303,
            "åĵ®": 4453,
            "åĵ²": 2105,
            "åĵº": 3375,
            "åĵĢ": 2802,
            "åĵģ": 521,
            "åĵĪ": 4501,
            "åĵī": 2878,
            "åĵŃ": 5260,
            "åĶ": 1404,
            "åĶ¯": 2021,
            "åĶ±": 2078,
            "åĶ¸": 3890,
            "åĶ¾": 3197,
            "åĶĦ": 2979,
            "åĶĨ": 2751,
            "åĶĩ": 2761,
            "åĶĲ": 2420,
            "åĶĸ": 3845,
            "åķ": 497,
            "åķª": 5336,
            "åķĦ": 4483,
            "åķĨ": 812,
            "åķı": 632,
            "åķĵ": 2505,
            "åķĸ": 5530,
            "åķľ": 5703,
            "åĸ": 666,
            "åĸ§": 2763,
            "åĸ©": 3545,
            "åĸª": 2711,
            "åĸ«": 2074,
            "åĸ¬": 4096,
            "åĸ®": 5176,
            "åĸ°": 3022,
            "åĸ¶": 868,
            "åĸĢ": 5505,
            "åĸĦ": 1400,
            "åĸĩ": 5451,
            "åĸī": 2754,
            "åĸĭ": 2964,
            "åĸĺ": 3243,
            "åĸļ": 2823,
            "åĸľ": 1524,
            "åĸĿ": 3556,
            "åĸŀ": 5821,
            "åĹ": 2388,
            "åĹ£": 3086,
            "åĹ½": 5787,
            "åĹħ": 3376,
            "åĹļ": 3530,
            "åĹľ": 3087,
            "åĹŁ": 4431,
            "åĺ": 1788,
            "åĺ©": 2901,
            "åĺ¯": 5481,
            "åĺ±": 3504,
            "åĺ²": 3962,
            "åĺ´": 4108,
            "åĺĨ": 2853,
            "åĺī": 2591,
            "åĺĶ": 3452,
            "åĺĹ": 4237,
            "åĺĺ": 2346,
            "åĻ": 943,
            "åĻ¤": 5337,
            "åĻ¨": 1031,
            "åĻª": 5695,
            "åĻ´": 2472,
            "åĻº": 3939,
            "åĻĤ": 2377,
            "åĻĮ": 2726,
            "åĻĽ": 2549,
            "åļ": 2874,
            "åļ¢": 3347,
            "åļ¥": 3935,
            "åļ®": 5630,
            "åļ¶": 5314,
            "åļ¼": 4432,
            "åļĨ": 5116,
            "åļĩ": 3875,
            "åĽ": 314,
            "åĽ£": 858,
            "åĽ®": 5600,
            "åĽ°": 1476,
            "åĽ²": 1177,
            "åĽ³": 1157,
            "åĽº": 1570,
            "åĽ½": 441,
            "åĽģ": 3711,
            "åĽĥ": 3525,
            "åĽļ": 2894,
            "åĽĽ": 1348,
            "åĽŀ": 505,
            "åĽł": 1219,
            "åľ": 339,
            "åľ§": 1401,
            "åľ¨": 640,
            "åľ°": 464,
            "åľ³": 4735,
            "åľ»": 4736,
            "åľĢ": 4819,
            "åľĥ": 3988,
            "åľĭ": 2717,
            "åľı": 1991,
            "åľĴ": 1091,
            "åľĵ": 3749,
            "åľĸ": 4880,
            "åľĺ": 4074,
            "åľŁ": 847,
            "åľŃ": 2922,
            "åĿ": 1220,
            "åĿ¡": 5455,
            "åĿ¤": 5047,
            "åĿ¦": 3329,
            "åĿª": 2850,
            "åĿĢ": 4127,
            "åĿĤ": 1695,
            "åĿĩ": 1729,
            "åĿĬ": 2499,
            "åĿı": 4748,
            "åĿĲ": 3319,
            "åĿĳ": 3396,
            "åŀ": 790,
            "åŀ¢": 3011,
            "åŀ£": 2301,
            "åŀĤ": 2382,
            "åŀĭ": 835,
            "åŁ": 534,
            "åŁ´": 3815,
            "åŁ·": 1744,
            "åŁ¹": 2086,
            "åŁº": 823,
            "åŁ¼": 1927,
            "åŁĥ": 3705,
            "åŁĭ": 2003,
            "åŁİ": 1202,
            "åŁĴ": 4669,
            "åŁĶ": 5323,
            "åŁľ": 5017,
            "åŁŁ": 952,
            "åŁł": 3921,
            "åł": 335,
            "åł¡": 3799,
            "åł¤": 2924,
            "åłª": 2530,
            "åł¯": 4573,
            "åł°": 3139,
            "åł±": 611,
            "åł´": 395,
            "åłµ": 3600,
            "åłº": 2789,
            "åłĢ": 2246,
            "åłĤ": 1568,
            "åłħ": 2407,
            "åłĨ": 3331,
            "åłķ": 3229,
            "åŃ": 315,
            "åŃ£": 1648,
            "åŃ¤": 2390,
            "åŃ¦": 417,
            "åŃ©": 5408,
            "åŃ«": 2085,
            "åŃµ": 3901,
            "åŃ¸": 3097,
            "åŃĲ": 465,
            "åŃĶ": 2939,
            "åŃķ": 4188,
            "åŃĹ": 1112,
            "åŃĺ": 864,
            "åŃļ": 4788,
            "åŃĿ": 2460,
            "åŃŁ": 3844,
            "æ": 164,
            "æ¡": 913,
            "æ¡§": 4473,
            "æ¡¶": 3542,
            "æ¡¿": 4274,
            "æ¡ģ": 2643,
            "æ¡Ĥ": 2830,
            "æ¡ĥ": 2343,
            "æ¡Ī": 1126,
            "æ¡Ĳ": 2617,
            "æ¡ĳ": 2648,
            "æ¡ĵ": 3752,
            "æ¡Ķ": 3478,
            "æ¡ľ": 1856,
            "æ¡Ŀ": 4644,
            "æ¡Ł": 3806,
            "æ¢": 1355,
            "æ¢¢": 3849,
            "æ¢§": 4583,
            "æ¢¨": 2081,
            "æ¢¯": 3731,
            "æ¢°": 1951,
            "æ¢±": 2589,
            "æ¢³": 4982,
            "æ¢µ": 3998,
            "æ¢¶": 2997,
            "æ¢ģ": 2677,
            "æ¢ĥ": 5721,
            "æ¢ħ": 1988,
            "æ¢ĵ": 3608,
            "æ¢Ĺ": 2966,
            "æ¢Ŀ": 3275,
            "æ¢Ł": 5480,
            "æ£": 1121,
            "æ£®": 1501,
            "æ£²": 3047,
            "æ£¹": 4535,
            "æ£º": 3417,
            "æ£Ħ": 2067,
            "æ£ĭ": 2653,
            "æ£į": 4770,
            "æ£Ĵ": 2299,
            "æ£Ĺ": 5804,
            "æ£ĺ": 3562,
            "æ£ļ": 2374,
            "æ£Ł": 2293,
            "æ£ł": 5231,
            "æ¤": 765,
            "æ¤°": 5294,
            "æ¤¿": 3253,
            "æ¤Ģ": 3794,
            "æ¤ħ": 2403,
            "æ¤ĭ": 4251,
            "æ¤į": 1555,
            "æ¤İ": 2451,
            "æ¤Ĵ": 3670,
            "æ¤Ļ": 5165,
            "æ¤Ľ": 5097,
            "æ¤ľ": 901,
            "æ¥": 362,
            "æ¥¡": 5756,
            "æ¥¢": 4452,
            "æ¥«": 5586,
            "æ¥®": 5024,
            "æ¥¯": 3980,
            "æ¥³": 4715,
            "æ¥µ": 1258,
            "æ¥·": 4438,
            "æ¥¼": 3166,
            "æ¥½": 601,
            "æ¥Ĭ": 3241,
            "æ¥ĵ": 3719,
            "æ¥Ķ": 4301,
            "æ¥ķ": 3500,
            "æ¥ļ": 3126,
            "æ¥ŀ": 5736,
            "æ¥ł": 3250,
            "æ¥Ń": 455,
            "æ¦": 1275,
            "æ¦®": 4131,
            "æ¦´": 3516,
            "æ¦Ĥ": 1307,
            "æ¦Ĭ": 3808,
            "æ¦İ": 3606,
            "æ¦ĳ": 5989,
            "æ¦Ľ": 4031,
            "æ¦ľ": 3851,
            "æ§": 473,
            "æ§»": 3037,
            "æ§½": 2749,
            "æ§¿": 5087,
            "æ§ĥ": 4170,
            "æ§ĩ": 4290,
            "æ§ĭ": 928,
            "æ§Į": 3643,
            "æ§į": 3175,
            "æ§İ": 5602,
            "æ§Ĳ": 5674,
            "æ§ĺ": 543,
            "æ§Ļ": 4341,
            "æ¨": 600,
            "æ¨¡": 1277,
            "æ¨£": 5063,
            "æ¨©": 968,
            "æ¨ª": 1237,
            "æ¨«": 4003,
            "æ¨µ": 5415,
            "æ¨¹": 1803,
            "æ¨º": 3318,
            "æ¨½": 2805,
            "æ¨¾": 5384,
            "æ¨Ĥ": 3189,
            "æ¨Ĭ": 5293,
            "æ¨ĭ": 3357,
            "æ¨ĵ": 4815,
            "æ¨Ļ": 1253,
            "æ¨Ł": 4920,
            "æ©": 560,
            "æ©¿": 4114,
            "æ©ĩ": 5639,
            "æ©Ī": 5899,
            "æ©ĭ": 1332,
            "æ©ĺ": 3178,
            "æ©Ļ": 3816,
            "æ©Ł": 606,
            "æª": 2837,
            "æª¢": 4864,
            "æª£": 5605,
            "æª¬": 5483,
            "æª¸": 5484,
            "æª»": 4011,
            "æªĢ": 3604,
            "æªĦ": 5403,
            "æªİ": 4007,
            "æªĹ": 5581,
            "æªľ": 3672,
            "æ«": 2670,
            "æ«»": 3001,
            "æ«Ĥ": 4832,
            "æ«ĥ": 4500,
            "æ«ĵ": 4087,
            "æ«Ľ": 3682,
            "æ¬": 625,
            "æ¬¡": 778,
            "æ¬£": 4260,
            "æ¬§": 1910,
            "æ¬²": 1340,
            "æ¬º": 2432,
            "æ¬½": 4059,
            "æ¬¾": 3061,
            "æ¬Ħ": 2234,
            "æ¬ħ": 3572,
            "æ¬Ĭ": 5778,
            "æ¬Ĵ": 4552,
            "æ¬ł": 1573,
            "æ®": 613,
            "æ®²": 3850,
            "æ®´": 2914,
            "æ®µ": 1042,
            "æ®·": 4570,
            "æ®º": 1386,
            "æ®»": 2709,
            "æ®¿": 1885,
            "æ®Ĩ": 2574,
            "æ®ī": 3503,
            "æ®Ĭ": 2065,
            "æ®ĭ": 969,
            "æ®ĸ": 2250,
            "æ®ĺ": 5462,
            "æ¯": 564,
            "æ¯«": 5072,
            "æ¯¬": 4468,
            "æ¯¯": 3583,
            "æ¯Ģ": 3527,
            "æ¯ħ": 3381,
            "æ¯į": 1181,
            "æ¯İ": 1062,
            "æ¯Ĵ": 2008,
            "æ¯Ķ": 1037,
            "æ¯ĺ": 4130,
            "æ¯Ľ": 1108,
            "æ°": 346,
            "æ°£": 3535,
            "æ°´": 719,
            "æ°·": 2261,
            "æ°¸": 1649,
            "æ°¾": 3732,
            "æ°ı": 1171,
            "æ°Ĳ": 5103,
            "æ°ĳ": 811,
            "æ°Ĺ": 442,
            "æ±": 509,
            "æ±ª": 4939,
            "æ±°": 2977,
            "æ±²": 3239,
            "æ±º": 736,
            "æ±½": 3262,
            "æ±¾": 5663,
            "æ±Ģ": 5424,
            "æ±ģ": 2312,
            "æ±Ĥ": 942,
            "æ±ī": 5590,
            "æ±İ": 2984,
            "æ±Ĳ": 3307,
            "æ±Ĺ": 2076,
            "æ±ļ": 1868,
            "æ±Ŀ": 3354,
            "æ±Ł": 1410,
            "æ±ł": 1668,
            "æ²": 548,
            "æ²¡": 2070,
            "æ²¢": 1304,
            "æ²«": 4015,
            "æ²³": 1544,
            "æ²¸": 2809,
            "æ²¹": 1712,
            "æ²»": 788,
            "æ²¼": 2113,
            "æ²½": 5613,
            "æ²¿": 1772,
            "æ²ģ": 4316,
            "æ²Ĥ": 5705,
            "æ²ĥ": 4119,
            "æ²Ī": 2207,
            "æ²Į": 3888,
            "æ²Ĳ": 4875,
            "æ²ĵ": 4794,
            "æ²ĸ": 1696,
            "æ²Ļ": 2467,
            "æ²Ľ": 5292,
            "æ³": 407,
            "æ³¡": 2622,
            "æ³¢": 1436,
            "æ³£": 2026,
            "æ³¥": 2619,
            "æ³¨": 884,
            "æ³¯": 5846,
            "æ³°": 2613,
            "æ³³": 2391,
            "æ³ģ": 989,
            "æ³Ħ": 3367,
            "æ³ī": 1538,
            "æ³Ĭ": 1711,
            "æ³Į": 2444,
            "æ³ĵ": 5277,
            "æ³ķ": 557,
            "æ´": 474,
            "æ´¥": 1492,
            "æ´©": 3114,
            "æ´ª": 2934,
            "æ´²": 2564,
            "æ´¸": 4640,
            "æ´»": 603,
            "æ´¾": 1236,
            "æ´ĭ": 1413,
            "æ´Ĵ": 3034,
            "æ´Ĺ": 1454,
            "æ´Ļ": 5410,
            "æ´Ľ": 3312,
            "æ´ŀ": 2378,
            "æ´Ł": 5717,
            "æµ": 484,
            "æµ£": 4236,
            "æµ¦": 1793,
            "æµ©": 2590,
            "æµª": 2474,
            "æµ®": 1516,
            "æµ´": 1865,
            "æµ·": 761,
            "æµ¸": 2196,
            "æµģ": 873,
            "æµĦ": 2145,
            "æµħ": 2063,
            "æµĻ": 3781,
            "æµļ": 4643,
            "æµľ": 1363,
            "æ¶": 834,
            "æ¶¯": 2189,
            "æ¶²": 1657,
            "æ¶µ": 5110,
            "æ¶¸": 5186,
            "æ¶¼": 2313,
            "æ¶ħ": 4220,
            "æ¶Ī": 1029,
            "æ¶Į": 4159,
            "æ¶İ": 4940,
            "æ¶Ļ": 2263,
            "æ¶Ľ": 4256,
            "æ¶ľ": 4503,
            "æ·": 874,
            "æ·¡": 2401,
            "æ·«": 3179,
            "æ·®": 4279,
            "æ·±": 1189,
            "æ·³": 2883,
            "æ·µ": 2976,
            "æ··": 1583,
            "æ·¹": 3638,
            "æ·º": 4921,
            "æ·»": 1784,
            "æ·Ģ": 3159,
            "æ·Ĩ": 5490,
            "æ·ĭ": 3892,
            "æ·ĳ": 3839,
            "æ·ĺ": 4001,
            "æ¸": 501,
            "æ¸¡": 1315,
            "æ¸£": 5870,
            "æ¸¤": 5173,
            "æ¸¥": 3526,
            "æ¸¦": 3320,
            "æ¸©": 1233,
            "æ¸«": 5401,
            "æ¸¬": 1461,
            "æ¸¯": 1373,
            "æ¸¸": 4197,
            "æ¸¾": 3871,
            "æ¸ħ": 1478,
            "æ¸ĩ": 3247,
            "æ¸Ī": 1030,
            "æ¸ī": 2041,
            "æ¸ĭ": 1949,
            "æ¸ĵ": 2852,
            "æ¸ķ": 3411,
            "æ¸ļ": 3761,
            "æ¸Ľ": 1166,
            "æ¸ł": 4241,
            "æ¸Ń": 5044,
            "æ¹": 1113,
            "æ¹§": 2595,
            "æ¹¯": 1869,
            "æ¹¾": 1764,
            "æ¹¿": 1898,
            "æ¹Ĭ": 3324,
            "æ¹ĸ": 2017,
            "æ¹ĺ": 2807,
            "æ¹Ľ": 4298,
            "æº": 633,
            "æº¢": 2431,
            "æº¥": 5943,
            "æºª": 4502,
            "æº¶": 2139,
            "æºº": 3308,
            "æºĢ": 1064,
            "æºĮ": 5820,
            "æºĲ": 1406,
            "æºĸ": 920,
            "æºľ": 2424,
            "æºĿ": 2706,
            "æ»": 1170,
            "æ»¡": 4909,
            "æ»¬": 5066,
            "æ»²": 3625,
            "æ»´": 2784,
            "æ»¸": 4511,
            "æ»¿": 5679,
            "æ»Ħ": 5177,
            "æ»ħ": 1787,
            "æ»ī": 5762,
            "æ»ĭ": 2347,
            "æ»İ": 5826,
            "æ»ĳ": 2033,
            "æ»ĵ": 4776,
            "æ»ķ": 5478,
            "æ»Ŀ": 2308,
            "æ»ŀ": 1897,
            "æ¼": 691,
            "æ¼¢": 1922,
            "æ¼£": 4435,
            "æ¼«": 1644,
            "æ¼¬": 2691,
            "æ¼¯": 5987,
            "æ¼±": 3778,
            "æ¼²": 5109,
            "æ¼¸": 3607,
            "æ¼¿": 3589,
            "æ¼ģ": 2242,
            "æ¼Ĥ": 2627,
            "æ¼Ĩ": 2898,
            "æ¼ī": 4371,
            "æ¼ı": 2094,
            "æ¼ĳ": 3797,
            "æ¼Ķ": 841,
            "æ¼ķ": 3304,
            "æ¼ł": 2548,
            "æ½": 1289,
            "æ½¤": 2408,
            "æ½®": 2229,
            "æ½°": 2559,
            "æ½´": 5308,
            "æ½¼": 5922,
            "æ½ħ": 5885,
            "æ½Ķ": 2350,
            "æ½ĺ": 4613,
            "æ½ľ": 2059,
            "æ½Ł": 2023,
            "æ½Ń": 4665,
            "æ¾": 2038,
            "æ¾¤": 2288,
            "æ¾ª": 3814,
            "æ¾±": 4572,
            "æ¾³": 5325,
            "æ¾¹": 5595,
            "æ¾ģ": 4631,
            "æ¾Ħ": 2738,
            "æ¿": 1017,
            "æ¿¡": 2685,
            "æ¿¤": 4445,
            "æ¿«": 3415,
            "æ¿¬": 5968,
            "æ¿¯": 2221,
            "æ¿±": 3316,
            "æ¿µ": 5904,
            "æ¿¾": 4115,
            "æ¿Ģ": 1245,
            "æ¿ģ": 3221,
            "æ¿ĥ": 1800,
            "æ¿Ł": 5550,
            "æ¿ł": 3840,
            "æĢ": 320,
            "æĢ¡": 5843,
            "æĢ¥": 1123,
            "æĢ§": 478,
            "æĢ¨": 3645,
            "æĢª": 1892,
            "æĢ¯": 3218,
            "æĢģ": 5394,
            "æĢĴ": 1954,
            "æĢĸ": 1880,
            "æĢľ": 3913,
            "æĢĿ": 413,
            "æĢł": 2704,
            "æģ": 815,
            "æģ¢": 5221,
            "æģ£": 4097,
            "æģ¥": 2201,
            "æģ¨": 3062,
            "æģ©": 2359,
            "æģª": 5739,
            "æģ«": 5185,
            "æģ¯": 1448,
            "æģ°": 4201,
            "æģµ": 1741,
            "æģĭ": 1486,
            "æģį": 5274,
            "æģĲ": 1670,
            "æģĴ": 2399,
            "æģķ": 5665,
            "æģŃ": 3106,
            "æĤ": 702,
            "æĤ£": 1471,
            "æĤ¦": 3334,
            "æĤ¨": 5488,
            "æĤ©": 1414,
            "æĤª": 1028,
            "æĤ²": 1913,
            "æĤ´": 5849,
            "æĤ¶": 3414,
            "æĤ¸": 4264,
            "æĤ¼": 3147,
            "æĤī": 4557,
            "æĤĮ": 5122,
            "æĤį": 5242,
            "æĤĶ": 2144,
            "æĤŁ": 2226,
            "æĤł": 2904,
            "æĥ": 495,
            "æĥ¡": 5239,
            "æĥ£": 3201,
            "æĥ§": 3230,
            "æĥ¨": 2618,
            "æĥ°": 3838,
            "æĥ³": 917,
            "æĥ¹": 2637,
            "æĥº": 5800,
            "æĥħ": 642,
            "æĥĩ": 4105,
            "æĥĳ": 1675,
            "æĥļ": 3078,
            "æĥľ": 2684,
            "æĥŁ": 3978,
            "æĥł": 4219,
            "æĦ": 376,
            "æĦ´": 5688,
            "æĦ¼": 5914,
            "æĦģ": 3490,
            "æĦĪ": 4327,
            "æĦī": 2875,
            "æĦį": 5798,
            "æĦı": 580,
            "æĦķ": 3333,
            "æĦļ": 2587,
            "æĦĽ": 914,
            "æĦŁ": 525,
            "æħ": 654,
            "æħ¢": 1960,
            "æħ£": 1604,
            "æħ§": 3566,
            "æħ¨": 3442,
            "æħ®": 1255,
            "æħ°": 2362,
            "æħ¶": 2125,
            "æħ¾": 4717,
            "æħĦ": 4254,
            "æħĪ": 2615,
            "æħĭ": 931,
            "æħĮ": 2647,
            "æħİ": 2314,
            "æħķ": 3161,
            "æħŁ": 5986,
            "æĨ": 1273,
            "æĨ¤": 3346,
            "æĨ§": 2525,
            "æĨ©": 2438,
            "æĨ«": 4285,
            "æĨ¬": 5188,
            "æĨ²": 1946,
            "æĨ¶": 1873,
            "æĨ¾": 4026,
            "æĨĤ": 2725,
            "æĨĬ": 4892,
            "æĨİ": 2990,
            "æĨĲ": 3579,
            "æĨĳ": 3264,
            "æĨļ": 4222,
            "æĩ": 1602,
            "æĩ²": 2866,
            "æĩ¸": 2056,
            "æĩº": 4873,
            "æĩ¼": 5783,
            "æĩ¿": 4971,
            "æĩĩ": 2733,
            "æĩĪ": 5090,
            "æĩī": 3010,
            "æĩĲ": 2264,
            "æĪ": 372,
            "æĪ¦": 614,
            "æĪª": 5670,
            "æĪ®": 4160,
            "æĪ¯": 2750,
            "æĪ°": 4622,
            "æĪ´": 2827,
            "æĪ·": 5981,
            "æĪ¸": 1212,
            "æĪ»": 1346,
            "æĪ¿": 1864,
            "æĪĢ": 5297,
            "æĪĬ": 3780,
            "æĪĮ": 4519,
            "æĪį": 5094,
            "æĪİ": 4505,
            "æĪı": 5879,
            "æĪĲ": 526,
            "æĪĳ": 1367,
            "æĪĴ": 2298,
            "æĪĸ": 2988,
            "æĪļ": 2872,
            "æĪŁ": 5029,
            "æī": 333,
            "æī®": 3631,
            "æī±": 1265,
            "æī¶": 2840,
            "æī¹": 1847,
            "æī¿": 1295,
            "æīĢ": 563,
            "æīģ": 3460,
            "æīĩ": 2682,
            "æīĪ": 4586,
            "æīī": 2563,
            "æīĭ": 457,
            "æīį": 1989,
            "æīĵ": 1199,
            "æīķ": 1231,
            "æīĺ": 4531,
            "æĬ": 463,
            "æĬ«": 2182,
            "æĬ±": 1637,
            "æĬµ": 2015,
            "æĬ¹": 2801,
            "æĬ¼": 1469,
            "æĬ½": 2114,
            "æĬĢ": 966,
            "æĬĦ": 3365,
            "æĬī": 4851,
            "æĬĬ": 2028,
            "æĬĳ": 1747,
            "æĬĴ": 4348,
            "æĬķ": 965,
            "æĬĹ": 1508,
            "æĬĺ": 1704,
            "æĬľ": 1299,
            "æĬŀ": 1238,
            "æĭ": 626,
            "æĭ¡": 1196,
            "æĭ¬": 2014,
            "æĭ®": 4005,
            "æĭ³": 2566,
            "æĭµ": 5182,
            "æĭ¶": 2311,
            "æĭ·": 3553,
            "æĭ¼": 4726,
            "æĭ¾": 2547,
            "æĭ¿": 4693,
            "æĭħ": 1105,
            "æĭī": 2968,
            "æĭĮ": 4799,
            "æĭį": 2488,
            "æĭĲ": 3323,
            "æĭĴ": 2159,
            "æĭĵ": 2393,
            "æĭĹ": 3721,
            "æĭĺ": 2428,
            "æĭĻ": 3349,
            "æĭĽ": 1902,
            "æĭĿ": 2069,
            "æĭł": 1473,
            "æĭŃ": 2610,
            "æĮ": 424,
            "æĮ¨": 2310,
            "æĮ«": 2912,
            "æĮ¯": 1296,
            "æĮº": 3582,
            "æĮ½": 3441,
            "æĮ¿": 2342,
            "æĮģ": 593,
            "æĮĩ": 759,
            "æĮī": 4034,
            "æĮĳ": 1820,
            "æĮĻ": 1260,
            "æĮĽ": 5208,
            "æĮŁ": 2426,
            "æį": 1174,
            "æį§": 2936,
            "æį¨": 1935,
            "æį©": 4523,
            "æį®": 2636,
            "æį²": 3928,
            "æį·": 4006,
            "æįº": 4092,
            "æį»": 3249,
            "æįī": 2302,
            "æįĮ": 4184,
            "æįı": 3639,
            "æįĲ": 5346,
            "æįķ": 1756,
            "æįĹ": 3130,
            "æįľ": 2158,
            "æİ": 470,
            "æİ¡": 1329,
            "æİ¢": 1132,
            "æİ¥": 985,
            "æİ§": 2029,
            "æİ¨": 1334,
            "æİ©": 4393,
            "æİª": 2249,
            "æİ¬": 5016,
            "æİ²": 1206,
            "æİ´": 2544,
            "æİ»": 3204,
            "æİ¾": 5076,
            "æİĥ": 1888,
            "æİĪ": 1312,
            "æİī": 5963,
            "æİĮ": 2943,
            "æİĴ": 1834,
            "æİĸ": 5529,
            "æİĺ": 2148,
            "æİĽ": 1453,
            "æİŁ": 4162,
            "æİł": 4136,
            "æı": 524,
            "æı¡": 1797,
            "æı®": 1773,
            "æı´": 1135,
            "æı¶": 3676,
            "æıº": 2320,
            "æıĥ": 1970,
            "æıĦ": 3678,
            "æıĨ": 3877,
            "æıī": 3214,
            "æıı": 1376,
            "æıĲ": 857,
            "æıĴ": 5487,
            "æıĸ": 4013,
            "æıļ": 2265,
            "æıĽ": 1191,
            "æĲ": 963,
            "æĲ¦": 5313,
            "æĲ¬": 2481,
            "æĲº": 1317,
            "æĲ¾": 3193,
            "æĲį": 1547,
            "æĲĹ": 5065,
            "æĲľ": 5921,
            "æĲŀ": 5944,
            "æĲŃ": 1790,
            "æĳ": 1274,
            "æĳ©": 2012,
            "æĳ¯": 3279,
            "æĳ¸": 5089,
            "æĳº": 3934,
            "æĳĤ": 1786,
            "æĳĺ": 1845,
            "æĳł": 5807,
            "æĴ": 784,
            "æĴ¤": 2147,
            "æĴ¥": 2933,
            "æĴ«": 2928,
            "æĴ®": 1197,
            "æĴ°": 3473,
            "æĴ²": 2604,
            "æĴ¹": 4727,
            "æĴ»": 4527,
            "æĴ¼": 5054,
            "æĴĥ": 1141,
            "æĴĪ": 4816,
            "æĴĴ": 3534,
            "æĴĵ": 5506,
            "æĴļ": 4808,
            "æĴĿ": 4800,
            "æĴŀ": 5038,
            "æĴŃ": 2905,
            "æĵ": 1341,
            "æĵ¢": 3235,
            "æĵ¦": 2707,
            "æĵ§": 5067,
            "æĵ¬": 2353,
            "æĵ±": 5551,
            "æĵ²": 3627,
            "æĵ¾": 4910,
            "æĵģ": 2663,
            "æĵĤ": 4872,
            "æĵį": 1603,
            "æĵļ": 5375,
            "æĶ": 437,
            "æĶ£": 3742,
            "æĶª": 4661,
            "æĶ«": 4835,
            "æĶ¯": 846,
            "æĶ¶": 5869,
            "æĶ¸": 5917,
            "æĶ¹": 936,
            "æĶ»": 1278,
            "æĶ¾": 860,
            "æĶ¿": 825,
            "æĶĢ": 5264,
            "æĶĺ": 3979,
            "æĶĿ": 5217,
            "æķ": 369,
            "æķ¢": 2697,
            "æķ£": 1509,
            "æķ¦": 2903,
            "æķ¬": 2082,
            "æķ°": 571,
            "æķ²": 5015,
            "æķ´": 1088,
            "æķµ": 1462,
            "æķ·": 1739,
            "æķ¸": 4478,
            "æķħ": 1324,
            "æķĪ": 5660,
            "æķį": 5276,
            "æķİ": 5433,
            "æķı": 2187,
            "æķĳ": 1743,
            "æķĹ": 1371,
            "æķĻ": 676,
            "æĸ": 292,
            "æĸ¡": 3550,
            "æĸ¤": 4530,
            "æĸ¥": 3897,
            "æĸ§": 3891,
            "æĸ©": 5796,
            "æĸ¬": 2806,
            "æĸ¯": 3773,
            "æĸ°": 494,
            "æĸ·": 4510,
            "æĸ¹": 387,
            "æĸ¼": 2757,
            "æĸ½": 903,
            "æĸĤ": 4657,
            "æĸĥ": 5236,
            "æĸĩ": 679,
            "æĸī": 2479,
            "æĸĮ": 4044,
            "æĸİ": 2360,
            "æĸĲ": 2804,
            "æĸĳ": 3134,
            "æĸĹ": 2638,
            "æĸĻ": 599,
            "æĸľ": 2410,
            "æĸŁ": 5867,
            "æĸŃ": 1011,
            "æĹ": 291,
            "æĹ¢": 1591,
            "æĹ¥": 304,
            "æĹ¦": 1980,
            "æĹ§": 1494,
            "æĹ¨": 2043,
            "æĹ©": 1052,
            "æĹ¬": 2044,
            "æĹ±": 4562,
            "æĹ¶": 4857,
            "æĹº": 3433,
            "æĹģ": 5372,
            "æĹħ": 1217,
            "æĹĭ": 2528,
            "æĹĮ": 5754,
            "æĹı": 1040,
            "æĹĹ": 2256,
            "æĹĽ": 4420,
            "æĹł": 3577,
            "æĹŃ": 2469,
            "æĺ": 404,
            "æĺ¥": 1382,
            "æĺ§": 2797,
            "æĺ¨": 1419,
            "æĺ¯": 1645,
            "æĺ´": 4970,
            "æĺ¼": 1835,
            "æĺĤ": 3831,
            "æĺĨ": 2882,
            "æĺĩ": 1671,
            "æĺĬ": 5163,
            "æĺĮ": 2523,
            "æĺİ": 634,
            "æĺı": 3515,
            "æĺĵ": 1621,
            "æĺĶ": 1680,
            "æĺŁ": 1343,
            "æĺł": 890,
            "æĺŃ": 1291,
            "æĻ": 348,
            "æĻ¦": 3590,
            "æĻ¨": 5432,
            "æĻ©": 2179,
            "æĻ®": 1180,
            "æĻ¯": 1377,
            "æĻ°": 4555,
            "æĻ´": 1609,
            "æĻ¶": 2248,
            "æĻº": 2214,
            "æĻĤ": 379,
            "æĻĥ": 3154,
            "æĻī": 5659,
            "æĻĭ": 2666,
            "æĻı": 4305,
            "æĻĴ": 3165,
            "æĻŁ": 5568,
            "æļ": 912,
            "æļ¢": 3902,
            "æļ¦": 2274,
            "æļ«": 2774,
            "æļ®": 1616,
            "æļ´": 1858,
            "æļģ": 3234,
            "æļĩ": 2137,
            "æļĪ": 5080,
            "æļī": 3811,
            "æļĳ": 1962,
            "æļĸ": 1984,
            "æļĹ": 1758,
            "æĽ": 425,
            "æĽ°": 3089,
            "æĽ²": 1002,
            "æĽ³": 3286,
            "æĽ´": 921,
            "æĽµ": 5777,
            "æĽ·": 4986,
            "æĽ¸": 592,
            "æĽ¹": 2739,
            "æĽ¼": 4289,
            "æĽ½": 2608,
            "æĽ¾": 3309,
            "æĽ¿": 1383,
            "æĽĩ": 2795,
            "æĽĸ": 2950,
            "æĽĻ": 4217,
            "æĽľ": 1364,
            "æĽĿ": 3451,
            "æľ": 270,
            "æľ¦": 4937,
            "æľ§": 3510,
            "æľ¨": 916,
            "æľª": 1201,
            "æľ«": 1190,
            "æľ¬": 358,
            "æľ±": 2605,
            "æľ´": 3006,
            "æľº": 2747,
            "æľ½": 2961,
            "æľĢ": 511,
            "æľĥ": 3358,
            "æľĪ": 360,
            "æľī": 732,
            "æľĭ": 3206,
            "æľį": 1294,
            "æľĶ": 3522,
            "æľķ": 5813,
            "æľĹ": 2562,
            "æľĽ": 1033,
            "æľĿ": 1022,
            "æľŁ": 610,
            "æľŃ": 1615,
            "æĿ": 337,
            "æĿ¡": 1096,
            "æĿ¢": 4336,
            "æĿ£": 5305,
            "æĿ¥": 520,
            "æĿ¯": 1973,
            "æĿ°": 5937,
            "æĿ±": 622,
            "æĿµ": 3408,
            "æĿ·": 5237,
            "æĿ¾": 1267,
            "æĿ¿": 1450,
            "æĿĢ": 5878,
            "æĿī": 2254,
            "æĿİ": 2656,
            "æĿı": 2927,
            "æĿĲ": 1008,
            "æĿĳ": 1046,
            "æĿĵ": 4658,
            "æĿĸ": 3187,
            "æĿľ": 3259,
            "æĿŀ": 4639,
            "æĿŁ": 1815,
            "æĿŃ": 3380,
            "æŀ": 536,
            "æŀ¡": 4931,
            "æŀ¢": 2942,
            "æŀ¯": 2843,
            "æŀ¶": 2255,
            "æŀ·": 4551,
            "æŀĦ": 5847,
            "æŀĩ": 5570,
            "æŀĲ": 1684,
            "æŀķ": 2766,
            "æŀĹ": 1633,
            "æŀļ": 1428,
            "æŀľ": 668,
            "æŀĿ": 2202,
            "æŀł": 1905,
            "æŁ": 645,
            "æŁ¥": 5425,
            "æŁ©": 5183,
            "æŁ±": 2180,
            "æŁ³": 2397,
            "æŁ´": 2683,
            "æŁµ": 3429,
            "æŁ»": 907,
            "æŁ¾": 5707,
            "æŁ¿": 3013,
            "æŁĦ": 1805,
            "æŁĬ": 4611,
            "æŁı": 2583,
            "æŁĲ": 2783,
            "æŁĳ": 3710,
            "æŁĵ": 1147,
            "æŁĶ": 1906,
            "æŁĺ": 5164,
            "æŁļ": 3424,
            "æł": 447,
            "æł¡": 748,
            "æł¢": 5132,
            "æłª": 1195,
            "æł¸": 1867,
            "æł¹": 1261,
            "æł¼": 752,
            "æł½": 2253,
            "æłĤ": 4764,
            "æłĥ": 2279,
            "æłĦ": 1531,
            "æłĵ": 3073,
            "æłĸ": 3211,
            "æłĹ": 2507,
            "æłŀ": 4600,
            "æŃ": 370,
            "æŃ¢": 851,
            "æŃ£": 710,
            "æŃ¤": 3040,
            "æŃ¦": 1264,
            "æŃ©": 1081,
            "æŃª": 2831,
            "æŃ¯": 1381,
            "æŃ³": 1066,
            "æŃ´": 1015,
            "æŃ¸": 5257,
            "æŃ»": 1057,
            "æŃ¿": 4913,
            "æŃĮ": 1143,
            "æŃİ": 5155,
            "æŃĵ": 2128,
            "æŃĻ": 5774,
            "ç": 165,
            "ç¡": 1974,
            "ç¡«": 2957,
            "ç¡¬": 2119,
            "ç¡¯": 4498,
            "ç¡Ŀ": 3484,
            "ç¢": 705,
            "ç¢§": 3343,
            "ç¢©": 4378,
            "ç¢°": 5135,
            "ç¢º": 713,
            "ç¢ģ": 3373,
            "ç¢ĩ": 3650,
            "ç¢Į": 5105,
            "ç¢į": 4226,
            "ç¢ĳ": 2681,
            "ç¢ĵ": 5184,
            "ç¢ķ": 5560,
            "ç¢Ĺ": 3764,
            "ç£": 1682,
            "ç£¨": 2096,
            "ç£¯": 2674,
            "ç£¾": 4513,
            "ç£ģ": 2329,
            "ç£ĭ": 4079,
            "ç£Ĳ": 2841,
            "ç£Ķ": 4416,
            "ç¤": 415,
            "ç¤¦": 5601,
            "ç¤«": 3744,
            "ç¤º": 779,
            "ç¤¼": 1734,
            "ç¤¾": 487,
            "ç¤ģ": 3176,
            "ç¤İ": 1863,
            "ç¤Ĵ": 5010,
            "ç¥": 510,
            "ç¥¢": 4793,
            "ç¥¥": 2482,
            "ç¥¨": 1824,
            "ç¥·": 3461,
            "ç¥Ģ": 2780,
            "ç¥ģ": 4408,
            "ç¥ĩ": 3237,
            "ç¥Ī": 2101,
            "ç¥ī": 1826,
            "ç¥Ĳ": 2712,
            "ç¥ĵ": 3644,
            "ç¥ĸ": 1912,
            "ç¥Ĺ": 4716,
            "ç¥ļ": 4659,
            "ç¥Ŀ": 1647,
            "ç¥ŀ": 753,
            "ç¥Ł": 4270,
            "ç¥ł": 4072,
            "ç¥Ń": 882,
            "ç¦": 869,
            "ç¦§": 5741,
            "ç¦®": 4359,
            "ç¦°": 3986,
            "ç¦¹": 4688,
            "ç¦½": 3926,
            "ç¦¾": 5137,
            "ç¦¿": 4561,
            "ç¦ģ": 1643,
            "ç¦Ħ": 2771,
            "ç¦ħ": 2846,
            "ç¦Ĭ": 4890,
            "ç¦į": 2785,
            "ç¦İ": 4042,
            "ç¦ı": 1012,
            "ç¦ķ": 5452,
            "ç§": 412,
            "ç§£": 4593,
            "ç§¤": 3756,
            "ç§¦": 2791,
            "ç§©": 2676,
            "ç§°": 1226,
            "ç§»": 1004,
            "ç§Ģ": 1754,
            "ç§ģ": 607,
            "ç§ī": 4790,
            "ç§ĭ": 1418,
            "ç§į": 4782,
            "ç§ĳ": 922,
            "ç§Ĵ": 1883,
            "ç§ĺ": 1674,
            "ç§Ł": 3587,
            "ç¨": 533,
            "ç¨®": 856,
            "ç¨±": 4624,
            "ç¨²": 2035,
            "ç¨·": 4868,
            "ç¨¼": 1552,
            "ç¨½": 2838,
            "ç¨¿": 1455,
            "ç¨Ģ": 2708,
            "ç¨ĭ": 1038,
            "ç¨İ": 1227,
            "ç¨Ķ": 3471,
            "ç¨Ĺ": 5121,
            "ç¨Ļ": 5134,
            "ç¨ļ": 2269,
            "ç¨ľ": 3497,
            "ç¨Ł": 5603,
            "ç¨ł": 4843,
            "ç©": 565,
            "ç©¢": 4294,
            "ç©£": 4101,
            "ç©«": 2520,
            "ç©°": 5942,
            "ç©´": 1901,
            "ç©¶": 1000,
            "ç©¹": 5252,
            "ç©º": 862,
            "ç©¿": 3609,
            "ç©Ģ": 2963,
            "ç©Ĥ": 2435,
            "ç©Ĩ": 5211,
            "ç©į": 1187,
            "ç©İ": 4680,
            "ç©ı": 2429,
            "çª": 1116,
            "çª©": 4273,
            "çªª": 3153,
            "çª®": 2891,
            "çª¯": 3088,
            "çªº": 3565,
            "çªģ": 1356,
            "çªĥ": 3546,
            "çªĦ": 3909,
            "çªĴ": 3388,
            "çªĵ": 1819,
            "çªĿ": 5088,
            "çªŁ": 3111,
            "ç«": 477,
            "ç«£": 2967,
            "ç«¥": 1890,
            "ç«¦": 5411,
            "ç«ª": 4051,
            "ç«¯": 1370,
            "ç«¶": 1391,
            "ç«¹": 2004,
            "ç«º": 4174,
            "ç«¿": 3593,
            "ç«Ħ": 4398,
            "ç«ĩ": 4576,
            "ç«Ī": 4405,
            "ç«ĭ": 585,
            "ç«Ĵ": 5546,
            "ç«Ļ": 3790,
            "ç«ľ": 2166,
            "ç«Ŀ": 5896,
            "ç«Ł": 5299,
            "ç«ł": 1513,
            "ç¬": 513,
            "ç¬¥": 4454,
            "ç¬¦": 2633,
            "ç¬¬": 576,
            "ç¬µ": 5611,
            "ç¬¹": 3002,
            "ç¬Ĭ": 5250,
            "ç¬ı": 4641,
            "ç¬ĳ": 1145,
            "ç¬Ļ": 4840,
            "ç¬Ľ": 3056,
            "ç¬ł": 2498,
            "ç®": 728,
            "ç®¡": 975,
            "ç®ª": 4122,
            "ç®±": 1889,
            "ç®´": 5037,
            "ç®¸": 2993,
            "ç®Ģ": 5615,
            "ç®ĩ": 2217,
            "ç®ĭ": 3066,
            "ç®ı": 4707,
            "ç®Ĵ": 4591,
            "ç®Ķ": 3708,
            "ç®ķ": 3401,
            "ç®Ĺ": 1241,
            "ç®ļ": 5823,
            "ç®Ń": 4820,
            "ç¯": 836,
            "ç¯¤": 2884,
            "ç¯¥": 5507,
            "ç¯³": 5533,
            "ç¯Ģ": 1306,
            "ç¯ģ": 5902,
            "ç¯Ħ": 1650,
            "ç¯Ĩ": 5158,
            "ç¯ĩ": 2821,
            "ç¯ī": 1244,
            "ç¯Ŀ": 5055,
            "ç¯ł": 2735,
            "ç¯Ń": 3792,
            "ç°": 1186,
            "ç°¡": 1225,
            "ç°ª": 4933,
            "ç°¾": 4077,
            "ç°¿": 2436,
            "ç°Ģ": 4709,
            "ç°Ĵ": 4950,
            "ç±": 906,
            "ç±¤": 5167,
            "ç±³": 1149,
            "ç±»": 5282,
            "ç±¾": 4490,
            "ç±į": 1352,
            "ç±Ĳ": 4372,
            "ç±Ķ": 5223,
            "ç±ł": 2788,
            "ç²": 939,
            "ç²¥": 4081,
            "ç²§": 1933,
            "ç²½": 4965,
            "ç²¾": 1246,
            "ç²ī": 2011,
            "ç²ĭ": 2369,
            "ç²į": 4694,
            "ç²Ĵ": 2318,
            "ç²ķ": 3610,
            "ç²Ĺ": 2694,
            "ç²ĺ": 2484,
            "ç²Ľ": 2871,
            "ç²Ł": 3605,
            "ç³": 805,
            "ç³§": 2897,
            "ç³¸": 2124,
            "ç³»": 956,
            "ç³¾": 3679,
            "ç³Ģ": 3830,
            "ç³Ĭ": 4215,
            "ç³İ": 5064,
            "ç³ĸ": 1676,
            "ç³ŀ": 2978,
            "ç³Ł": 3750,
            "ç³ł": 4409,
            "ç´": 355,
            "ç´¡": 3091,
            "ç´¢": 1357,
            "ç´«": 2175,
            "ç´¬": 4168,
            "ç´¯": 2727,
            "ç´°": 1019,
            "ç´³": 3146,
            "ç´¹": 919,
            "ç´º": 3288,
            "ç´Ģ": 1349,
            "ç´Ħ": 703,
            "ç´ħ": 961,
            "ç´Ĩ": 3992,
            "ç´ĭ": 2456,
            "ç´į": 1368,
            "ç´Ĳ": 2848,
            "ç´Ķ": 1720,
            "ç´Ĺ": 3133,
            "ç´ĺ": 3685,
            "ç´Ļ": 1398,
            "ç´ļ": 1239,
            "ç´Ľ": 2193,
            "ç´ł": 848,
            "çµ": 334,
            "çµ¡": 1313,
            "çµ¢": 3602,
            "çµ£": 4780,
            "çµ¦": 1271,
            "çµ¨": 3529,
            "çµ±": 1100,
            "çµ²": 4781,
            "çµµ": 1490,
            "çµ¶": 1284,
            "çµ¹": 3335,
            "çµĤ": 831,
            "çµĥ": 5043,
            "çµĦ": 739,
            "çµħ": 5844,
            "çµĨ": 2844,
            "çµĮ": 673,
            "çµĲ": 629,
            "çµŀ": 2195,
            "ç¶": 531,
            "ç¶¬": 3544,
            "ç¶±": 2352,
            "ç¶²": 2120,
            "ç¶´": 2867,
            "ç¶µ": 5897,
            "ç¶¸": 5704,
            "ç¶º": 1985,
            "ç¶»": 3057,
            "ç¶½": 5816,
            "ç¶¾": 2773,
            "ç¶¿": 2351,
            "ç¶ı": 4476,
            "ç¶ĵ": 4464,
            "ç¶Ļ": 1248,
            "ç¶ļ": 650,
            "ç¶ľ": 3990,
            "ç¶Ń": 1626,
            "ç·": 459,
            "ç·¨": 1107,
            "ç·©": 2138,
            "ç·¬": 4679,
            "ç·¯": 2340,
            "ç·´": 1388,
            "ç·»": 3444,
            "ç·Ĭ": 1798,
            "ç·ĭ": 3960,
            "ç·ı": 1061,
            "ç·ĳ": 1872,
            "ç·Ĵ": 1240,
            "ç·ĺ": 4668,
            "ç·ļ": 754,
            "ç·Ŀ": 5086,
            "ç·ŀ": 5661,
            "ç·ł": 1614,
            "ç¸": 923,
            "ç¸£": 3879,
            "ç¸¦": 2141,
            "ç¸«": 2743,
            "ç¸®": 1777,
            "ç¸·": 5517,
            "ç¸º": 5967,
            "ç¸½": 4898,
            "ç¸¾": 1504,
            "ç¸ģ": 1836,
            "ç¸Ħ": 1742,
            "ç¸Ĭ": 4949,
            "ç¸ĭ": 4271,
            "ç¸Ľ": 2534,
            "ç¸ŀ": 3743,
            "ç¹": 954,
            "ç¹ª": 5988,
            "ç¹«": 4932,
            "ç¹°": 1689,
            "ç¹¹": 5492,
            "ç¹»": 5436,
            "ç¹¼": 5147,
            "ç¹ģ": 1915,
            "ç¹Ĭ": 2282,
            "ç¹ĭ": 1875,
            "ç¹į": 3282,
            "ç¹Ķ": 1443,
            "ç¹ķ": 3125,
            "ç¹ļ": 5113,
            "ç¹ŀ": 5883,
            "ç¹Ń": 3595,
            "çº": 2434,
            "çº§": 3869,
            "çº¹": 5427,
            "çº¿": 3292,
            "çºĤ": 3203,
            "çºĮ": 5126,
            "çºı": 3110,
            "ç»": 3466,
            "ç»¼": 4142,
            "ç»į": 4926,
            "ç»ı": 5652,
            "ç»ĵ": 5117,
            "ç»Ŀ": 5441,
            "ç¼": 2543,
            "ç¼¶": 2567,
            "ç¼ĸ": 5579,
            "ç½": 692,
            "ç½ª": 1658,
            "ç½«": 4419,
            "ç½®": 764,
            "ç½°": 2364,
            "ç½²": 1987,
            "ç½µ": 3420,
            "ç½·": 4394,
            "ç½¹": 3301,
            "ç½Ĳ": 5641,
            "ç½ĳ": 3930,
            "ç½ł": 3330,
            "ç¾": 591,
            "ç¾¤": 1517,
            "ç¾¨": 3212,
            "ç¾©": 1013,
            "ç¾¯": 5557,
            "ç¾²": 5253,
            "ç¾¹": 4309,
            "ç¾½": 1780,
            "ç¾ħ": 2348,
            "ç¾Ĩ": 5198,
            "ç¾Ĭ": 2641,
            "ç¾Į": 4358,
            "ç¾İ": 822,
            "ç¾ŀ": 4073,
            "ç¿": 813,
            "ç¿¡": 4775,
            "ç¿°": 4869,
            "ç¿³": 5574,
            "ç¿¹": 4708,
            "ç¿»": 2130,
            "ç¿¼": 2237,
            "ç¿ģ": 3403,
            "ç¿ħ": 3859,
            "ç¿Ĭ": 5760,
            "ç¿Į": 1622,
            "ç¿Ĵ": 993,
            "ç¿Ķ": 2594,
            "ç¿ł": 3745,
            "çĢ": 1816,
            "çĢ§": 3664,
            "çĢ¬": 1891,
            "çĢ¾": 4645,
            "çĢī": 4785,
            "çĢĭ": 4496,
            "çĢĳ": 4847,
            "çĢķ": 3748,
            "çĢĽ": 5830,
            "çĢŀ": 4701,
            "çģ": 918,
            "çģ£": 5491,
            "çģ«": 1230,
            "çģ¯": 2146,
            "çģ°": 2579,
            "çģ¸": 2672,
            "çģ¼": 4400,
            "çģ½": 1449,
            "çģĮ": 3374,
            "çģĺ": 3332,
            "çĤ": 584,
            "çĤ¬": 5706,
            "çĤ³": 5241,
            "çĤ¸": 3908,
            "çĤ¹": 712,
            "çĤº": 1208,
            "çĤī": 2652,
            "çĤĬ": 2722,
            "çĤİ": 1792,
            "çĤĴ": 3036,
            "çĤĻ": 4522,
            "çĤŃ": 1944,
            "çĥ": 2222,
            "çĥ¹": 3634,
            "çĥĪ": 2491,
            "çĥı": 3075,
            "çĥĻ": 4777,
            "çĥŁ": 5074,
            "çĥŃ": 4554,
            "çĦ": 482,
            "çĦ¡": 597,
            "çĦ¦": 2194,
            "çĦ°": 5412,
            "çĦ¶": 937,
            "çĦ¼": 1458,
            "çĦī": 3511,
            "çĦĶ": 4317,
            "çĦĻ": 3447,
            "çĦļ": 3198,
            "çħ": 1221,
            "çħ¤": 4757,
            "çħ¥": 4579,
            "çħ§": 1475,
            "çħ©": 3177,
            "çħ¬": 5806,
            "çħ®": 2423,
            "çħ½": 3224,
            "çħī": 3597,
            "çħĮ": 3717,
            "çħİ": 3083,
            "çħķ": 4365,
            "çħĻ": 2111,
            "çĨ": 1048,
            "çĨ¨": 4157,
            "çĨ±": 1302,
            "çĨ¹": 5201,
            "çĨ¾": 4123,
            "çĨĬ": 1794,
            "çĨĻ": 3933,
            "çĨŁ": 1859,
            "çĩ": 1528,
            "çĩ¥": 2030,
            "çĩ¦": 4630,
            "çĩµ": 5722,
            "çĩ»": 3885,
            "çĩ¼": 5190,
            "çĩ¿": 5552,
            "çĩĥ": 1896,
            "çĩĪ": 3729,
            "çĩĲ": 5202,
            "çĩĴ": 5387,
            "çĩķ": 3202,
            "çĩĹ": 4055,
            "çĩŃ": 4430,
            "çĪ": 981,
            "çĪª": 2500,
            "çĪ¬": 3657,
            "çĪ±": 4306,
            "çĪ²": 4495,
            "çĪµ": 2060,
            "çĪ¶": 1262,
            "çĪº": 3462,
            "çĪ½": 2746,
            "çĪ¾": 3425,
            "çĪĨ": 1718,
            "çĪĽ": 3762,
            "çĪŃ": 5903,
            "çī": 391,
            "çī¡": 2748,
            "çī¢": 3428,
            "çī§": 2165,
            "çī©": 538,
            "çī²": 2501,
            "çī¹": 667,
            "çī½": 3012,
            "çīĢ": 5984,
            "çīĩ": 1681,
            "çīĪ": 1025,
            "çīĮ": 3389,
            "çīĴ": 5291,
            "çīĻ": 3060,
            "çīĽ": 1953,
            "çīĿ": 3167,
            "çīŁ": 3481,
            "çĬ": 609,
            "çĬ¬": 1551,
            "çĬ¯": 1690,
            "çĬ¶": 683,
            "çĬĢ": 3588,
            "çĬł": 2490,
            "çĭ": 927,
            "çĭ¡": 4756,
            "çĭ©": 2466,
            "çĭ¬": 1183,
            "çĭ¸": 4411,
            "çĭ¼": 2307,
            "çĭ½": 5025,
            "çĭĢ": 5453,
            "çĭģ": 5824,
            "çĭĤ": 2277,
            "çĭĦ": 5159,
            "çĭĲ": 3725,
            "çĭĹ": 3532,
            "çĭĻ": 2051,
            "çĭĽ": 3281,
            "çĭł": 5230,
            "çĭŃ": 2039,
            "çĮ": 1159,
            "çĮ¥": 3656,
            "çĮ©": 5825,
            "çĮª": 3101,
            "çĮ«": 1625,
            "çĮ®": 1687,
            "çĮ¶": 3217,
            "çĮ·": 5018,
            "çĮ¾": 5004,
            "çĮ¿": 2724,
            "çĮĽ": 2415,
            "çĮľ": 5254,
            "çĮŁ": 3023,
            "çį": 1323,
            "çį£": 2259,
            "çį¨": 4479,
            "çį°": 5644,
            "çį²": 1554,
            "çįº": 5255,
            "çį»": 5463,
            "çįĦ": 2406,
            "çįħ": 3242,
            "çįı": 5990,
            "çİ": 684,
            "çİ©": 2769,
            "çİ°": 5882,
            "çİ²": 3052,
            "çİģ": 5822,
            "çİĦ": 2134,
            "çİĩ": 1060,
            "çİī": 1503,
            "çİĭ": 1041,
            "çİĸ": 3995,
            "çı": 544,
            "çıª": 4018,
            "çı¾": 556,
            "çıĢ": 4439,
            "çıĤ": 3716,
            "çıĪ": 3355,
            "çıĬ": 4204,
            "çıį": 2115,
            "çıł": 2631,
            "çıŃ": 2826,
            "çĲ": 454,
            "çĲ¢": 3658,
            "çĲ¥": 3967,
            "çĲ¦": 4938,
            "çĲ®": 5197,
            "çĲ²": 3361,
            "çĲ³": 4155,
            "çĲ´": 2989,
            "çĲµ": 3338,
            "çĲ¶": 3336,
            "çĲĥ": 1204,
            "çĲħ": 5061,
            "çĲĨ": 485,
            "çĲī": 2991,
            "çĳ": 2332,
            "çĳ¤": 4827,
            "çĳª": 4996,
            "çĳ¯": 5426,
            "çĳ³": 4299,
            "çĳ¶": 5786,
            "çĳ¾": 5522,
            "çĳģ": 5764,
            "çĳķ": 3803,
            "çĳļ": 4235,
            "çĳĽ": 3763,
            "çĳľ": 5366,
            "çĳŀ": 2842,
            "çĳŁ": 5510,
            "çĳł": 3305,
            "çĴ": 1075,
            "çĴ§": 2493,
            "çĴ°": 1119,
            "çĴ½": 4821,
            "çĴĥ": 3620,
            "çĴĭ": 3882,
            "çĵ": 2186,
            "çĵ¢": 4494,
            "çĵ¦": 2649,
            "çĵ¶": 2639,
            "çĵĬ": 4924,
            "çĵļ": 5021,
            "çĵľ": 3683,
            "çĶ": 275,
            "çĶ£": 742,
            "çĶ¥": 3257,
            "çĶ¦": 4030,
            "çĶ¨": 393,
            "çĶ«": 3663,
            "çĶ°": 706,
            "çĶ±": 900,
            "çĶ²": 1760,
            "çĶ³": 894,
            "çĶµ": 5034,
            "çĶ·": 875,
            "çĶº": 818,
            "çĶ»": 569,
            "çĶĳ": 5028,
            "çĶķ": 4282,
            "çĶĺ": 1866,
            "çĶļ": 3019,
            "çĶľ": 5194,
            "çĶŁ": 408,
            "çķ": 443,
            "çķ¢": 5307,
            "çķ¥": 1374,
            "çķ¦": 5218,
            "çķª": 744,
            "çķ«": 4541,
            "çķ¯": 5383,
            "çķ°": 1097,
            "çķ³": 2489,
            "çķ¶": 3848,
            "çķ·": 4284,
            "çķ¿": 2792,
            "çķĮ": 727,
            "çķı": 3932,
            "çķĳ": 2227,
            "çķĶ": 3387,
            "çķĻ": 1396,
            "çķľ": 2699,
            "çķĿ": 4245,
            "çķł": 3427,
            "çĸ": 1080,
            "çĸ«": 2317,
            "çĸ±": 4076,
            "çĸ²": 1770,
            "çĸµ": 3768,
            "çĸ¸": 4859,
            "çĸ¹": 3164,
            "çĸ¼": 3489,
            "çĸ½": 5537,
            "çĸ¾": 2102,
            "çĸĨ": 4211,
            "çĸĩ": 3596,
            "çĸĭ": 4718,
            "çĸİ": 2632,
            "çĸı": 4844,
            "çĸĳ": 1515,
            "çĹ": 630,
            "çĹ¢": 3150,
            "çĹ£": 5558,
            "çĹ©": 2385,
            "çĹ°": 4287,
            "çĹ´": 2655,
            "çĹº": 3128,
            "çĹ¼": 5559,
            "çĹħ": 994,
            "çĹĩ": 967,
            "çĹī": 5212,
            "çĹį": 4673,
            "çĹĴ": 3298,
            "çĹĶ": 4091,
            "çĹķ": 3068,
            "çĹĺ": 4347,
            "çĹĻ": 3766,
            "çĹĽ": 1283,
            "çĺ": 2586,
            "çĺ¡": 4480,
            "çĺ¢": 5681,
            "çĺ¤": 3758,
            "çĺ»": 5115,
            "çĺį": 2816,
            "çĻ": 365,
            "çĻ¥": 5980,
            "çĻª": 4774,
            "çĻ¬": 4169,
            "çĻ²": 5052,
            "çĻ¸": 5737,
            "çĻº": 471,
            "çĻ»": 845,
            "çĻ¼": 4326,
            "çĻ½": 1023,
            "çĻ¾": 1630,
            "çĻĤ": 915,
            "çĻĩ": 4568,
            "çĻĮ": 2629,
            "çĻĴ": 2118,
            "çĻĸ": 2557,
            "çļ": 368,
            "çļ®": 1579,
            "çļº": 4361,
            "çļ¿": 2533,
            "çļĦ": 419,
            "çļĨ": 760,
            "çļĩ": 1512,
            "çļĲ": 4056,
            "çļĵ": 4598,
            "çĽ": 352,
            "çĽ£": 1321,
            "çĽ¤": 1618,
            "çĽ§": 4132,
            "çĽª": 5119,
            "çĽ®": 500,
            "çĽ²": 3049,
            "çĽ´": 863,
            "çĽ¸": 686,
            "çĽ¾": 2623,
            "çĽĤ": 4396,
            "çĽĥ": 3618,
            "çĽĨ": 2494,
            "çĽĪ": 5734,
            "çĽĬ": 1499,
            "çĽĹ": 2055,
            "çĽĽ": 1495,
            "çĽľ": 5735,
            "çĽŀ": 4834,
            "çĽŁ": 1825,
            "çľ": 440,
            "çľ©": 3601,
            "çľ·": 4126,
            "çľ¸": 5209,
            "çľº": 2266,
            "çľ¼": 1839,
            "çľģ": 1319,
            "çľĩ": 5400,
            "çľĪ": 5528,
            "çľī": 3074,
            "çľĭ": 1580,
            "çľĮ": 621,
            "çľŀ": 3297,
            "çľŁ": 795,
            "çľł": 1600,
            "çĿ": 717,
            "çĿ¡": 2024,
            "çĿ£": 1438,
            "çĿ¦": 3183,
            "çĿ¨": 3557,
            "çĿ«": 5136,
            "çĿ¾": 4485,
            "çĿĢ": 826,
            "çŀ": 1688,
            "çŀ¥": 4685,
            "çŀ¬": 1857,
            "çŀ°": 3829,
            "çŀ³": 2886,
            "çŀ¼": 3872,
            "çŀĳ": 3141,
            "çŀŀ": 4517,
            "çŀŃ": 3136,
            "çŁ": 468,
            "çŁ¢": 2073,
            "çŁ£": 5814,
            "çŁ¥": 549,
            "çŁ§": 5895,
            "çŁ©": 4153,
            "çŁ®": 4156,
            "çŁ¯": 2497,
            "çŁ³": 1104,
            "çŁĽ": 2868,
            "çŁľ": 5011,
            "çŁŃ": 1326,
            "çł": 711,
            "çł¥": 4191,
            "çł¦": 3294,
            "çł§": 5243,
            "çł²": 1796,
            "çł´": 1322,
            "çłº": 4443,
            "çłģ": 3723,
            "çłĤ": 1804,
            "çłĶ": 935,
            "çłķ": 2863,
            "çŃ": 541,
            "çŃ¥": 5364,
            "çŃ§": 5266,
            "çŃµ": 5280,
            "çŃº": 5918,
            "çŃħ": 5692,
            "çŃĨ": 1664,
            "çŃĪ": 3285,
            "çŃī": 775,
            "çŃĭ": 1529,
            "çŃĮ": 4964,
            "çŃį": 5036,
            "çŃı": 4603,
            "çŃĲ": 3681,
            "çŃĳ": 2519,
            "çŃĴ": 2416,
            "çŃĶ": 1279,
            "çŃĸ": 1117,
            "è": 166,
            "è¡": 311,
            "è¡¡": 2986,
            "è¡¢": 5893,
            "è¡£": 1806,
            "è¡¨": 598,
            "è¡°": 2402,
            "è¡·": 4209,
            "è¡¾": 5023,
            "è¡¿": 4610,
            "è¡Ģ": 1266,
            "è¡Ĩ": 1571,
            "è¡Į": 380,
            "è¡į": 5322,
            "è¡Ĵ": 5599,
            "è¡ĵ": 840,
            "è¡Ĺ": 1375,
            "è¡Ļ": 4677,
            "è¡Ľ": 1407,
            "è¡Ŀ": 1911,
            "è¡ŀ": 5172,
            "è¢": 1146,
            "è¢¢": 4662,
            "è¢«": 1351,
            "è¢±": 5805,
            "è¢´": 3641,
            "è¢ģ": 3707,
            "è¢Ĥ": 4904,
            "è¢Ī": 4002,
            "è¢ĭ": 1818,
            "è¢į": 5781,
            "è¢ĸ": 2448,
            "è¢ľ": 5324,
            "è£": 551,
            "è£¡": 4311,
            "è£³": 3767,
            "è£´": 4993,
            "è£¸": 2673,
            "è£½": 889,
            "è£¾": 3245,
            "è£ģ": 1578,
            "è£Ĥ": 2273,
            "è£Ħ": 5614,
            "è£ħ": 1089,
            "è£ı": 1651,
            "è£Ķ": 3691,
            "è£ķ": 1832,
            "è£ľ": 1293,
            "è£Ŀ": 5413,
            "è£Ł": 3899,
            "è¤": 1224,
            "è¤¥": 4691,
            "è¤ª": 4323,
            "è¤«": 5519,
            "è¤»": 4053,
            "è¤Ħ": 5005,
            "è¤ĩ": 1301,
            "è¤Į": 5417,
            "è¤Ĳ": 3226,
            "è¤Ĵ": 2344,
            "è¥": 887,
            "è¥¦": 5166,
            "è¥²": 1877,
            "è¥·": 5575,
            "è¥¿": 951,
            "è¥Ħ": 3820,
            "è¥ĸ": 4017,
            "è¥ŀ": 5591,
            "è¥Ł": 3521,
            "è¦": 306,
            "è¦§": 1165,
            "è¦ª": 998,
            "è¦³": 955,
            "è¦º": 5797,
            "è¦ģ": 516,
            "è¦Ĩ": 2243,
            "è¦ĩ": 2268,
            "è¦ĭ": 421,
            "è¦ı": 974,
            "è¦ĸ": 1072,
            "è¦Ĺ": 2799,
            "è¦ļ": 1150,
            "è§": 578,
            "è§£": 655,
            "è§¦": 1514,
            "è§¸": 5801,
            "è§Ģ": 4328,
            "è§ģ": 4421,
            "è§Ĥ": 3771,
            "è§Ħ": 4354,
            "è§Ĩ": 3720,
            "è§ī": 5547,
            "è§Ĵ": 1520,
            "è¨": 307,
            "è¨¢": 5373,
            "è¨£": 3185,
            "è¨ª": 1395,
            "è¨±": 1385,
            "è¨³": 1358,
            "è¨´": 1822,
            "è¨¶": 4425,
            "è¨º": 1399,
            "è¨»": 4376,
            "è¨¼": 1034,
            "è¨Ģ": 481,
            "è¨Ĥ": 2160,
            "è¨ĥ": 3863,
            "è¨Ī": 802,
            "è¨Ĭ": 3157,
            "è¨İ": 1511,
            "è¨ĵ": 1948,
            "è¨Ĺ": 1939,
            "è¨ĺ": 577,
            "è¨Ľ": 3861,
            "è¨Ŀ": 4283,
            "è¨Ł": 2517,
            "è¨Ń": 635,
            "è©": 414,
            "è©¢": 5009,
            "è©£": 3077,
            "è©¦": 803,
            "è©©": 1976,
            "è©«": 3046,
            "è©®": 3519,
            "è©°": 1874,
            "è©±": 612,
            "è©²": 1837,
            "è©³": 1192,
            "è©Ī": 5381,
            "è©Ĳ": 2452,
            "è©Ķ": 4090,
            "è©ķ": 1079,
            "è©Ľ": 5715,
            "è©ŀ": 1751,
            "è©ł": 3208,
            "è©Ń": 5259,
            "èª": 336,
            "èª¤": 1821,
            "èª¦": 4806,
            "èªª": 5868,
            "èª¬": 861,
            "èª°": 1234,
            "èª²": 1339,
            "èª¹": 3552,
            "èª¼": 5256,
            "èª¿": 749,
            "èªĤ": 5687,
            "èªħ": 4351,
            "èªĩ": 2097,
            "èªī": 2215,
            "èªĮ": 1518,
            "èªį": 725,
            "èªĵ": 2744,
            "èªķ": 1733,
            "èªĺ": 1768,
            "èªŀ": 698,
            "èªł": 1966,
            "èªŃ": 883,
            "è«": 631,
            "è«¡": 4029,
            "è«¤": 5803,
            "è«¦": 2280,
            "è«§": 4681,
            "è««": 3977,
            "è«®": 3539,
            "è«±": 3800,
            "è«·": 5145,
            "è«¸": 1678,
            "è«º": 4459,
            "è«¾": 2316,
            "è«ĩ": 1036,
            "è«ĭ": 1409,
            "è«Į": 4469,
            "è«į": 4687,
            "è«ı": 3028,
            "è«Ĵ": 4175,
            "è«ĸ": 1039,
            "è«ľ": 3673,
            "è«Ń": 2944,
            "è¬": 821,
            "è¬¡": 2770,
            "è¬¬": 4574,
            "è¬³": 3122,
            "è¬¹": 3351,
            "è¬Ģ": 2271,
            "è¬ģ": 3955,
            "è¬Ĥ": 3492,
            "è¬Ħ": 3989,
            "è¬İ": 2300,
            "è¬Ĳ": 5073,
            "è¬Ĺ": 3531,
            "è¬Ļ": 2860,
            "è¬Ľ": 1085,
            "è¬Ŀ": 1470,
            "è¬ł": 5477,
            "è®": 2535,
            "è®¡": 5465,
            "è®¤": 5295,
            "è®©": 4817,
            "è®Ģ": 4529,
            "è®ĥ": 3108,
            "è®Ĭ": 4595,
            "è®Ĳ": 3151,
            "è®Ĵ": 4711,
            "è®ĵ": 5696,
            "è¯": 3445,
            "è¯¦": 4888,
            "è¯±": 5309,
            "è¯´": 5596,
            "è¯·": 5467,
            "è¯į": 4436,
            "è¯ķ": 5748,
            "è¯Ŀ": 5367,
            "è¯Ń": 5316,
            "è°": 1281,
            "è°¢": 5827,
            "è°·": 1285,
            "è°Ī": 5617,
            "è±": 755,
            "è±¡": 1045,
            "è±ª": 2002,
            "è±«": 4654,
            "è±¹": 3927,
            "è±Ĩ": 1884,
            "è±Ĭ": 1292,
            "è±Ĳ": 5642,
            "è±ļ": 2462,
            "è²": 416,
            "è²¡": 1354,
            "è²¢": 1919,
            "è²§": 2169,
            "è²¨": 1539,
            "è²©": 929,
            "è²ª": 3543,
            "è²«": 2142,
            "è²¬": 1500,
            "è²¯": 2037,
            "è²°": 2151,
            "è²´": 1589,
            "è²¶": 3969,
            "è²·": 885,
            "è²¸": 1653,
            "è²»": 1003,
            "è²¼": 2112,
            "è²¿": 2365,
            "è²Ĥ": 5544,
            "è²Į": 2962,
            "è²Ŀ": 2718,
            "è²ŀ": 2437,
            "è²ł": 1179,
            "è³": 438,
            "è³¢": 2252,
            "è³£": 4963,
            "è³¤": 4248,
            "è³¦": 3499,
            "è³ª": 842,
            "è³¼": 1051,
            "è³½": 4214,
            "è³Ģ": 1574,
            "è³Ĥ": 4352,
            "è³ĥ": 1771,
            "è³Ħ": 3265,
            "è³ĩ": 817,
            "è³Ī": 4814,
            "è³Ĭ": 2723,
            "è³ĳ": 2701,
            "è³ĵ": 3592,
            "è³Ľ": 2020,
            "è³ľ": 1487,
            "è³ŀ": 1090,
            "è³ł": 2503,
            "è³Ń": 2584,
            "è´": 1781,
            "è´¨": 5106,
            "è´¹": 3668,
            "è´Ħ": 4449,
            "è´ħ": 2714,
            "è´Ī": 1961,
            "è´ĭ": 4342,
            "è´Ķ": 4047,
            "è´ĸ": 4098,
            "è´Ľ": 5747,
            "èµ": 665,
            "èµ¤": 1249,
            "èµ¦": 2880,
            "èµ«": 5104,
            "èµ°": 1256,
            "èµ³": 5228,
            "èµ´": 2668,
            "èµ·": 897,
            "èµĦ": 5693,
            "è¶": 663,
            "è¶£": 1853,
            "è¶¨": 4783,
            "è¶³": 940,
            "è¶¾": 4050,
            "è¶ħ": 1252,
            "è¶Ĭ": 1247,
            "è¶Ļ": 3276,
            "è·": 800,
            "è·¡": 1620,
            "è·¨": 3327,
            "è·ª": 4488,
            "è·¯": 1063,
            "è·³": 2817,
            "è·µ": 1938,
            "è·ĭ": 4295,
            "è·Ľ": 5532,
            "è·Ŀ": 1752,
            "è¸": 1537,
            "è¸ª": 3145,
            "è¸µ": 4239,
            "è¸Ĭ": 2206,
            "è¸ı": 1767,
            "è¹": 2582,
            "è¹´": 2948,
            "è¹Ĥ": 4218,
            "è¹Ħ": 3785,
            "è¹Ĭ": 4825,
            "è¹Ł": 3818,
            "è¹ł": 5765,
            "èº": 651,
            "èº«": 697,
            "èº¯": 4025,
            "èº°": 4861,
            "èº¾": 4322,
            "èºģ": 4312,
            "èºĦ": 5572,
            "èºĩ": 2998,
            "èºĬ": 2999,
            "èºį": 1541,
            "èºĵ": 4475,
            "èºĻ": 4205,
            "è»": 427,
            "è»¢": 881,
            "è»¸": 2090,
            "è»½": 1155,
            "è»Ĭ": 660,
            "è»ĭ": 3997,
            "è»Į": 2098,
            "è»į": 871,
            "è»Ĵ": 2292,
            "è»Ľ": 5757,
            "è»Ł": 2162,
            "è¼": 659,
            "è¼¦": 5012,
            "è¼©": 1959,
            "è¼ª": 1667,
            "è¼¯": 4556,
            "è¼¸": 1599,
            "è¼»": 4633,
            "è¼¿": 3423,
            "è¼ĥ": 1426,
            "è¼ī": 925,
            "è¼Į": 2926,
            "è¼Ķ": 2767,
            "è¼ķ": 5267,
            "è¼Ľ": 3853,
            "è¼ľ": 5045,
            "è¼Ŀ": 2049,
            "è½": 2262,
            "è½¡": 5464,
            "è½¢": 3733,
            "è½¦": 5326,
            "è½½": 4758,
            "è½Ħ": 2449,
            "è½ī": 5627,
            "è½į": 4324,
            "è½Ł": 3508,
            "è¾": 595,
            "è¾£": 3970,
            "è¾¯": 5002,
            "è¾°": 2973,
            "è¾±": 3051,
            "è¾²": 1459,
            "è¾º": 1303,
            "è¾»": 2814,
            "è¾¼": 766,
            "è¾¾": 5759,
            "è¾¿": 2887,
            "è¾Ľ": 1978,
            "è¾ŀ": 1738,
            "è¾Ł": 4344,
            "è¾Ń": 5664,
            "è¿": 461,
            "è¿¦": 3261,
            "è¿ª": 5298,
            "è¿«": 1876,
            "è¿°": 1308,
            "è¿·": 1629,
            "è¿¹": 4582,
            "è¿½": 1142,
            "è¿Ĥ": 3364,
            "è¿Ħ": 3192,
            "è¿ħ": 2465,
            "è¿ĩ": 4914,
            "è¿İ": 1441,
            "è¿Ĳ": 5071,
            "è¿ĳ": 708,
            "è¿Ķ": 1001,
            "è¿Ļ": 4930,
            "è¿ŀ": 5001,
            "è¿Ń": 3852,
            "èĢ": 347,
            "èĢ³": 1861,
            "èĢ¶": 3231,
            "èĢ½": 4268,
            "èĢĢ": 4338,
            "èĢģ": 1619,
            "èĢĥ": 582,
            "èĢħ": 429,
            "èĢĨ": 4538,
            "èĢĮ": 3509,
            "èĢĲ": 1802,
            "èĢķ": 2731,
            "èĢĹ": 2862,
            "èģ": 566,
            "èģ¡": 3168,
            "èģ¯": 3782,
            "èģ°": 4743,
            "èģ²": 4021,
            "èģ³": 4612,
            "èģ´": 1444,
            "èģ·": 886,
            "èģ¾": 5414,
            "èģĮ": 5817,
            "èģĸ": 1562,
            "èģĺ": 3465,
            "èģļ": 4171,
            "èģŀ": 879,
            "èĤ": 596,
            "èĤ¡": 2630,
            "èĤ¢": 2192,
            "èĤ¥": 2154,
            "èĤ©": 1983,
            "èĤª": 1997,
            "èĤ¯": 2918,
            "èĤ±": 5919,
            "èĤ²": 876,
            "èĤ´": 4102,
            "èĤº": 2506,
            "èĤĨ": 5312,
            "èĤĩ": 4223,
            "èĤī": 1347,
            "èĤĭ": 3906,
            "èĤĮ": 1286,
            "èĤĸ": 3065,
            "èĤĺ": 3135,
            "èĤĽ": 3290,
            "èĤĿ": 2108,
            "èĥ": 502,
            "èĥ¡": 2892,
            "èĥ¤": 3477,
            "èĥ¥": 5964,
            "èĥ±": 3599,
            "èĥ´": 3092,
            "èĥ¸": 1957,
            "èĥ½": 568,
            "èĥĥ": 2379,
            "èĥĨ": 2598,
            "èĥĮ": 1485,
            "èĥİ": 2800,
            "èĥļ": 3784,
            "èĥŀ": 1829,
            "èĦ": 828,
            "èĦ©": 4422,
            "èĦ«": 3846,
            "èĦ±": 1287,
            "èĦ³": 1731,
            "èĦ¸": 5416,
            "èĦ¹": 5079,
            "èĦ¾": 3680,
            "èĦĤ": 1746,
            "èĦħ": 2387,
            "èĦĨ": 2980,
            "èĦĩ": 2345,
            "èĦĪ": 2121,
            "èĦĬ": 2889,
            "èĦļ": 1842,
            "èĦĽ": 4415,
            "èħ": 1043,
            "èħ«": 2381,
            "èħ°": 1979,
            "èħ±": 3637,
            "èħ¸": 2140,
            "èħ¹": 1725,
            "èħº": 2679,
            "èħ¿": 3677,
            "èħĭ": 4528,
            "èħİ": 2686,
            "èħĲ": 2354,
            "èħĳ": 3649,
            "èħĵ": 4497,
            "èħĶ": 2859,
            "èħķ": 1929,
            "èħŁ": 5884,
            "èĨ": 1434,
            "èĨ£": 3446,
            "èĨ¨": 2290,
            "èĨ³": 3054,
            "èĨµ": 3506,
            "èĨ½": 5886,
            "èĨ¾": 5852,
            "èĨ¿": 3472,
            "èĨĢ": 3598,
            "èĨı": 3524,
            "èĨļ": 2089,
            "èĨľ": 2209,
            "èĨĿ": 2508,
            "èĨł": 3940,
            "èĩ": 377,
            "èĩ£": 1765,
            "èĩ¥": 3951,
            "èĩ¨": 1719,
            "èĩª": 411,
            "èĩ³": 1669,
            "èĩ´": 1397,
            "èĩº": 4752,
            "èĩ¼": 3070,
            "èĩĢ": 4113,
            "èĩĤ": 5982,
            "èĩĨ": 3603,
            "èĩĪ": 5738,
            "èĩį": 4789,
            "èĩĵ": 1965,
            "èĩļ": 5486,
            "èĩŃ": 1945,
            "èĪ": 552,
            "èĪ©": 5210,
            "èĪª": 1467,
            "èĪ«": 4253,
            "èĪ¬": 1156,
            "èĪµ": 3623,
            "èĪ¶": 3014,
            "èĪ·": 3734,
            "èĪ¹": 1430,
            "èĪħ": 4994,
            "èĪĩ": 4024,
            "èĪĪ": 1207,
            "èĪĮ": 2593,
            "èĪį": 5531,
            "èĪİ": 1833,
            "èĪĲ": 3105,
            "èĪĴ": 5898,
            "èĪĹ": 1194,
            "èĪĺ": 3735,
            "èĪĽ": 4346,
            "èĪľ": 4706,
            "èĪŀ": 1435,
            "èĪŁ": 2803,
            "èī": 514,
            "èī¤": 4515,
            "èī¦": 1639,
            "èī®": 5474,
            "èī¯": 674,
            "èī±": 5612,
            "èī²": 866,
            "èī¶": 2786,
            "èī¸": 3507,
            "èī¾": 5251,
            "èīĢ": 5985,
            "èīĩ": 2546,
            "èīĺ": 4742,
            "èĬ": 855,
            "èĬ¥": 3463,
            "èĬ¦": 3016,
            "èĬ¯": 2956,
            "èĬ±": 1182,
            "èĬ³": 2611,
            "èĬ¸": 1393,
            "èĬ¹": 4265,
            "èĬ»": 5013,
            "èĬ½": 2511,
            "èĬĭ": 2974,
            "èĬį": 5229,
            "èĬĴ": 4575,
            "èĬĻ": 3954,
            "èĬĿ": 2149,
            "èĬŃ": 3915,
            "èĭ": 687,
            "èĭ¥": 1251,
            "èĭ¦": 1099,
            "èĭ§": 5385,
            "èĭ«": 3434,
            "èĭ±": 1115,
            "èĭº": 3728,
            "èĭ»": 3325,
            "èĭħ": 4075,
            "èĭĳ": 2996,
            "èĭĵ": 5549,
            "èĭĶ": 3383,
            "èĭĹ": 2745,
            "èĭĽ": 3344,
            "èĭŀ": 4320,
            "èĭŁ": 4560,
            "èĮ": 1222,
            "èĮ¨": 2199,
            "èĮ«": 4802,
            "èĮ²": 5123,
            "èĮ¶": 1525,
            "èĮ¸": 3368,
            "èĮ¹": 3385,
            "èĮĤ": 2295,
            "èĮĥ": 4456,
            "èĮĦ": 3987,
            "èĮħ": 3009,
            "èĮī": 4082,
            "èĮİ": 2621,
            "èĮĹ": 5245,
            "èĮľ": 3774,
            "èį": 1098,
            "èį·": 1592,
            "èį»": 3293,
            "èį¼": 4455,
            "èįĢ": 5969,
            "èįī": 1654,
            "èįĬ": 4310,
            "èįı": 4516,
            "èįĴ": 1916,
            "èįĺ": 2418,
            "èİ": 2601,
            "èİ¢": 4410,
            "èİ«": 3162,
            "èİ±": 4164,
            "èİ½": 5906,
            "èİī": 3254,
            "èİĬ": 5271,
            "èİĴ": 5993,
            "èİŀ": 4584,
            "èı": 715,
            "èı©": 3098,
            "èı«": 5676,
            "èı¯": 902,
            "èı°": 4414,
            "èı±": 2358,
            "èı´": 5872,
            "èıħ": 2515,
            "èıĬ": 2476,
            "èıĮ": 1763,
            "èıĵ": 1999,
            "èıĸ": 4166,
            "èıľ": 1730,
            "èıŁ": 5359,
            "èĲ": 1006,
            "èĲ¥": 5536,
            "èĲ©": 3027,
            "èĲ¬": 3549,
            "èĲ±": 4862,
            "èĲ¼": 4313,
            "èĲ½": 1054,
            "èĲĦ": 4052,
            "èĲĩ": 3200,
            "èĲĬ": 5742,
            "èĲĮ": 2965,
            "èĲİ": 3611,
            "èĳ": 750,
            "èĳ¡": 3878,
            "èĳ£": 3493,
            "èĳ¦": 4143,
            "èĳ©": 4995,
            "èĳ«": 5851,
            "èĳ¬": 2034,
            "èĳ±": 4487,
            "èĳµ": 3123,
            "èĳº": 3356,
            "èĳī": 950,
            "èĳĹ": 1365,
            "èĳĽ": 2486,
            "èĳŃ": 5573,
            "èĴ": 1860,
            "èĴ²": 2820,
            "èĴ´": 5624,
            "èĴ¸": 2200,
            "èĴ»": 5647,
            "èĴ¼": 3156,
            "èĴĭ": 4772,
            "èĴĲ": 4446,
            "èĴĶ": 3689,
            "èĴĻ": 3067,
            "èĴľ": 4695,
            "èĴŁ": 5594,
            "èĵ": 1808,
            "èĵ¬": 3907,
            "èĵ®": 2514,
            "èĵ¼": 4854,
            "èĵĦ": 2220,
            "èĵī": 4597,
            "èĵĭ": 2578,
            "èĵĳ": 4542,
            "èĶ": 1480,
            "èĶ¡": 4107,
            "èĶ£": 4078,
            "èĶ¦": 4116,
            "èĶµ": 1567,
            "èĶ½": 3480,
            "èĶĳ": 3260,
            "èĶĵ": 3421,
            "èĶĹ": 5618,
            "èĶļ": 4647,
            "èĶŃ": 3551,
            "èķ": 2509,
            "èķ¨": 4019,
            "èķ©": 4402,
            "èķª": 4831,
            "èķ¾": 3843,
            "èķģ": 4988,
            "èķĥ": 4192,
            "èķī": 3783,
            "èķĬ": 4580,
            "èķİ": 3055,
            "èķĹ": 5951,
            "èķŃ": 4429,
            "èĸ": 957,
            "èĸ¦": 2368,
            "èĸ¨": 4221,
            "èĸ©": 2764,
            "èĸª": 3311,
            "èĸ«": 3082,
            "èĸ¬": 1154,
            "èĸ®": 4730,
            "èĸ¯": 4731,
            "èĸĦ": 1775,
            "èĸĩ": 3284,
            "èĸĬ": 5030,
            "èĸĶ": 3277,
            "èĸĹ": 4852,
            "èĸĻ": 4277,
            "èĸĽ": 5168,
            "èĹ": 1127,
            "èĹ¤": 1276,
            "èĹ¥": 4604,
            "èĹ©": 1924,
            "èĹª": 4085,
            "èĹ¹": 5454,
            "èĹº": 5761,
            "èĹ»": 3152,
            "èĹģ": 3613,
            "èĹī": 5518,
            "èĹį": 3035,
            "èĹı": 5003,
            "èĹĿ": 3100,
            "èĺ": 2164,
            "èĺ¿": 5832,
            "èĺĤ": 5437,
            "èĺĨ": 4275,
            "èĺĩ": 2602,
            "èĺŃ": 2531,
            "èĻ": 1447,
            "èĻ¢": 5645,
            "èĻ«": 1909,
            "èĻ±": 5853,
            "èĻ¹": 2969,
            "èĻ»": 4441,
            "èĻİ": 2645,
            "èĻĲ": 2430,
            "èĻĶ": 4144,
            "èĻķ": 4148,
            "èĻļ": 2441,
            "èĻľ": 2765,
            "èĻŀ": 4504,
            "èĻŁ": 4635,
            "èļ": 2856,
            "èļ¤": 4621,
            "èļĬ": 3196,
            "èļķ": 3426,
            "èĽ": 2153,
            "èĽ¤": 4923,
            "èĽ®": 3341,
            "èĽ¸": 5026,
            "èĽ¹": 5161,
            "èĽ¾": 4524,
            "èĽĨ": 5457,
            "èĽĩ": 2599,
            "èĽī": 5626,
            "èĽĭ": 3700,
            "èĽį": 3112,
            "èĽĻ": 4129,
            "èĽĽ": 3919,
            "èĽŃ": 4710,
            "èľ": 2357,
            "èľ·": 4667,
            "èľ»": 5648,
            "èľĢ": 3975,
            "èľĤ": 2811,
            "èľĥ": 5179,
            "èľĺ": 3917,
            "èľľ": 3045,
            "èĿ": 2524,
            "èĿ¦": 3718,
            "èĿ®": 5680,
            "èĿ¶": 2953,
            "èĿ¿": 5438,
            "èĿī": 4263,
            "èĿĭ": 3946,
            "èĿķ": 3896,
            "èĿĹ": 5628,
            "èĿĻ": 5458,
            "èĿł": 5439,
            "èŀ": 3464,
            "èŀ¢": 4818,
            "èŀº": 3632,
            "èŀĤ": 5930,
            "èŀį": 1496,
            "èŁ": 2935,
            "èŁ²": 4616,
            "èŁ¹": 3207,
            "èŁ»": 3976,
            "èŁĦ": 4803,
            "èŁł": 5929,
            "èł": 3143,
            "èł¢": 4671,
            "èł£": 3369,
            "èłħ": 5907,
            "èłį": 4811,
            "èłķ": 5328,
            "èŃ": 522,
            "èŃ¦": 1439,
            "èŃ¬": 5363,
            "èŃ¯": 5815,
            "èŃ°": 896,
            "èŃ²": 2013,
            "èŃ·": 924,
            "èŃī": 4272,
            "èŃĺ": 991,
            "èŃļ": 3548,
            "èŃľ": 2419,
            "é": 167,
            "é¡": 430,
            "é¡§": 1810,
            "é¡°": 4829,
            "é¡µ": 4958,
            "é¡Ĩ": 4154,
            "é¡Į": 707,
            "é¡į": 1118,
            "é¡İ": 2810,
            "é¡ı": 5610,
            "é¡Ķ": 1215,
            "é¡ķ": 2335,
            "é¡ĺ": 898,
            "é¡Ľ": 4206,
            "é¡ŀ": 953,
            "é¢": 3252,
            "é¢¨": 977,
            "é¢¯": 3727,
            "é¢ĳ": 3813,
            "é£": 507,
            "é£¢": 3007,
            "é£«": 5240,
            "é£¯": 1791,
            "é£²": 1184,
            "é£´": 3580,
            "é£¼": 1956,
            "é£½": 2446,
            "é£¾": 1838,
            "é£Ħ": 4881,
            "é£İ": 5265,
            "é£Ľ": 1300,
            "é£ľ": 5675,
            "é£ŀ": 5662,
            "é£Ł": 672,
            "é¤": 839,
            "é¤¡": 3950,
            "é¤¨": 1068,
            "é¤ĥ": 3042,
            "é¤ħ": 2721,
            "é¤ī": 5694,
            "é¤Ĭ": 1345,
            "é¤Į": 2716,
            "é¤Ĳ": 3931,
            "é¤ĵ": 3362,
            "é¤ĺ": 5222,
            "é¤ŀ": 5740,
            "é¥": 3119,
            "é¥ħ": 3874,
            "é¥ī": 3858,
            "é¥Į": 5191,
            "é¥Ĵ": 4648,
            "é¥Ĺ": 4266,
            "é¦": 793,
            "é¦¨": 4046,
            "é¦¬": 1175,
            "é¦®": 4571,
            "é¦³": 3129,
            "é¦´": 2433,
            "é¦ĸ": 1369,
            "é¦Ļ": 1442,
            "é§": 729,
            "é§¿": 2932,
            "é§ģ": 4651,
            "é§Ħ": 1990,
            "é§ħ": 892,
            "é§Ĩ": 1776,
            "é§Ī": 5345,
            "é§Ĳ": 1736,
            "é§Ĵ": 2502,
            "é§ķ": 3867,
            "é¨": 689,
            "é¨¨": 3422,
            "é¨°": 2812,
            "é¨İ": 2116,
            "é¨Ĵ": 2150,
            "é¨ĵ": 724,
            "é¨Ļ": 2675,
            "é©": 1721,
            "é©¢": 5521,
            "é©¤": 5148,
            "é©ĥ": 5270,
            "é©ķ": 4948,
            "é©ļ": 1737,
            "é©Ł": 5887,
            "éª": 1561,
            "éª¨": 1593,
            "éª¸": 3289,
            "éªĮ": 5723,
            "é«": 483,
            "é«£": 4907,
            "é«ª": 1686,
            "é«´": 4908,
            "é«·": 5395,
            "é«Ħ": 2890,
            "é«ı": 5077,
            "é«ĳ": 5078,
            "é«Ķ": 3419,
            "é«ĺ": 493,
            "é«Ļ": 3629,
            "é«Ń": 3342,
            "é¬": 1918,
            "é¬±": 2877,
            "é¬¼": 2036,
            "é¬Ĩ": 4692,
            "é¬ĺ": 5625,
            "é¬ļ": 5170,
            "é®": 1545,
            "é®¨": 4587,
            "é®ª": 4845,
            "é®«": 4161,
            "é®®": 1590,
            "é®İ": 3726,
            "é®ĳ": 5782,
            "é®Ĵ": 4863,
            "é®Ń": 3819,
            "é¯": 2680,
            "é¯¨": 3655,
            "é¯°": 5127,
            "é¯±": 4954,
            "é¯µ": 5580,
            "é¯ī": 3432,
            "é¯ĸ": 3642,
            "é¯Ľ": 3570,
            "é°": 2909,
            "é°¯": 5327,
            "é°¹": 4186,
            "é°º": 5440,
            "é°»": 4089,
            "é°Ĭ": 5224,
            "é°į": 5349,
            "é°Ĳ": 4778,
            "é°ĵ": 4280,
            "é°Ń": 3476,
            "é±": 3017,
            "é±Ī": 4481,
            "é±Ĵ": 5056,
            "é±Ĺ": 3194,
            "é±ł": 4899,
            "é³": 1387,
            "é³¥": 1642,
            "é³©": 3121,
            "é³³": 3095,
            "é³´": 2040,
            "é³¶": 4564,
            "é´": 2512,
            "é´¦": 4407,
            "é´¨": 2849,
            "é´»": 3399,
            "é´ī": 4343,
            "é´İ": 4499,
            "é´Ľ": 5855,
            "éµ": 2900,
            "éµ¬": 3893,
            "éµ²": 5994,
            "éµ·": 5833,
            "éµĦ": 5631,
            "éµľ": 3188,
            "éµŀ": 5650,
            "éµł": 4466,
            "é¶": 1943,
            "é¶¯": 4413,
            "é¶´": 2181,
            "é¶µ": 5831,
            "é¶ı": 2495,
            "é¶ļ": 5020,
            "é·": 2389,
            "é·²": 2960,
            "é·¹": 2858,
            "é·º": 3614,
            "é·Ĺ": 5389,
            "é¸": 3737,
            "é¸ļ": 5931,
            "é¸ŀ": 3925,
            "é¹": 1708,
            "é¹µ": 4387,
            "é¹¸": 3117,
            "é¹¹": 5945,
            "é¹¿": 1757,
            "éº": 1203,
            "éº¦": 2230,
            "éº©": 4683,
            "éºµ": 4871,
            "éº¹": 3366,
            "éºº": 2315,
            "éº»": 1707,
            "éº¾": 5360,
            "éº¿": 3817,
            "éºĴ": 4349,
            "éºĵ": 2992,
            "éºĹ": 1812,
            "éºŁ": 3860,
            "é»": 1160,
            "é»Ħ": 1950,
            "é»Į": 5873,
            "é»į": 5261,
            "é»İ": 3547,
            "é»ĳ": 4853,
            "é»Ĵ": 1336,
            "é»Ļ": 2333,
            "é»ŀ": 4605,
            "é¼": 1941,
            "é¼»": 2168,
            "é¼¾": 4532,
            "é¼İ": 3868,
            "é¼ĵ": 2646,
            "é¼ł": 3796,
            "é½": 1403,
            "é½¢": 1432,
            "é½§": 4732,
            "é½¬": 4629,
            "é½Ĭ": 4086,
            "é½ĭ": 3653,
            "é½İ": 4366,
            "é½Ĵ": 4797,
            "é½Ł": 4619,
            "é¾": 2095,
            "é¾į": 2133,
            "é¾Ĳ": 5604,
            "é¾ķ": 4228,
            "é¾Ļ": 5992,
            "éĢ": 308,
            "éĢ¡": 4676,
            "éĢ¢": 2719,
            "éĢ£": 661,
            "éĢ®": 2240,
            "éĢ±": 1148,
            "éĢ²": 720,
            "éĢ¸": 2422,
            "éĢ¼": 3983,
            "éĢĢ": 1209,
            "éĢģ": 716,
            "éĢĥ": 1679,
            "éĢħ": 4928,
            "éĢĨ": 1488,
            "éĢį": 5205,
            "éĢı": 1871,
            "éĢĲ": 2776,
            "éĢĵ": 3959,
            "éĢĶ": 1394,
            "éĢĹ": 3647,
            "éĢĻ": 3350,
            "éĢļ": 519,
            "éĢĿ": 3090,
            "éĢŀ": 4363,
            "éĢŁ": 1114,
            "éĢł": 986,
            "éģ": 313,
            "éģ¡": 3069,
            "éģ£": 1617,
            "éģ¥": 2958,
            "éģ©": 1053,
            "éģ®": 2659,
            "éģµ": 2895,
            "éģ·": 2522,
            "éģ¸": 639,
            "éģ¹": 5502,
            "éģº": 1420,
            "éģ¼": 3337,
            "éģ½": 3155,
            "éģ¿": 1572,
            "éģģ": 4196,
            "éģĤ": 2135,
            "éģħ": 1546,
            "éģĩ": 2174,
            "éģĬ": 1378,
            "éģĭ": 763,
            "éģį": 2987,
            "éģİ": 806,
            "éģĲ": 5637,
            "éģĵ": 675,
            "éģĶ": 899,
            "éģķ": 829,
            "éģĻ": 3994,
            "éģľ": 3652,
            "éģł": 1389,
            "éģŃ": 2283,
            "éĤ": 1151,
            "éĤ¢": 5678,
            "éĤ£": 1830,
            "éĤ¦": 1968,
            "éĤ¨": 4493,
            "éĤª": 2000,
            "éĤ¯": 4891,
            "éĤ±": 4300,
            "éĤµ": 4242,
            "éĤ¸": 2404,
            "éĤģ": 3272,
            "éĤĤ": 4941,
            "éĤĦ": 1972,
            "éĤĩ": 4314,
            "éĤī": 3812,
            "éĤĬ": 3937,
            "éĤĳ": 3340,
            "éĥ": 403,
            "éĥ¡": 1280,
            "éĥ¨": 498,
            "éĥµ": 1967,
            "éĥ·": 1844,
            "éĥ½": 797,
            "éĥģ": 3363,
            "éĥĬ": 2414,
            "éĥİ": 1379,
            "éĥĿ": 5358,
            "éĥŃ": 2870,
            "éĦ": 3053,
            "éĦ§": 3775,
            "éĦ²": 5099,
            "éĦĤ": 5523,
            "éĦĻ": 5466,
            "éĦŃ": 3538,
            "éħ": 627,
            "éħ¢": 2815,
            "éħ©": 5174,
            "éħª": 3392,
            "éħ¬": 2284,
            "éħµ": 2104,
            "éħ·": 2260,
            "éħ¸": 1402,
            "éħī": 4319,
            "éħĬ": 5175,
            "éħĭ": 4807,
            "éħĮ": 3635,
            "éħį": 801,
            "éħİ": 3171,
            "éħĴ": 1468,
            "éħĶ": 2286,
            "éħĽ": 5640,
            "éĨ": 1886,
            "éĨ¤": 2715,
            "éĨ«": 4837,
            "éĨ¬": 5667,
            "éĨ¸": 2620,
            "éĨĩ": 4463,
            "éĨī": 5124,
            "éĨį": 3030,
            "éĨĲ": 3032,
            "éĨĴ": 2911,
            "éĨĹ": 5301,
            "éĨľ": 3437,
            "éĩ": 364,
            "éĩ£": 2091,
            "éĩ§": 3169,
            "éĩĩ": 3453,
            "éĩĪ": 2031,
            "éĩī": 3898,
            "éĩĭ": 4918,
            "éĩĮ": 1723,
            "éĩį": 723,
            "éĩİ": 757,
            "éĩı": 979,
            "éĩĳ": 553,
            "éĩĺ": 3313,
            "éĩľ": 2808,
            "éĩĿ": 1799,
            "éĪ": 2006,
            "éĪ´": 2131,
            "éĪ·": 5854,
            "éĪ¿": 5232,
            "éĪį": 3000,
            "éĪĳ": 4882,
            "éĪĶ": 5709,
            "éĪŀ": 5149,
            "éī": 1093,
            "éī¢": 2787,
            "éī¤": 4128,
            "éī¦": 4801,
            "éī±": 2327,
            "éī¾": 3482,
            "éīĦ": 1211,
            "éīħ": 4548,
            "éīī": 5269,
            "éīĹ": 4981,
            "éīĽ": 2392,
            "éĬ": 1101,
            "éĬ³": 5576,
            "éĬĢ": 1360,
            "éĬĥ": 2042,
            "éĬħ": 2453,
            "éĬĩ": 4594,
            "éĬĪ": 5160,
            "éĬī": 5169,
            "éĬĳ": 4596,
            "éĬĺ": 2330,
            "éĬļ": 3864,
            "éĬŃ": 2239,
            "éĭ": 2032,
            "éĭ¤": 5125,
            "éĭ²": 4744,
            "éĭ³": 3144,
            "éĭ¸": 3754,
            "éĭ¼": 2561,
            "éĭı": 4424,
            "éĭĴ": 4028,
            "éĭŃ": 2569,
            "éĮ": 787,
            "éĮ¢": 5397,
            "éĮ£": 5965,
            "éĮ¦": 2794,
            "éĮ¨": 4809,
            "éĮ«": 3900,
            "éĮ¬": 3020,
            "éĮ®": 4795,
            "éĮ¯": 2588,
            "éĮ²": 830,
            "éĮĨ": 3491,
            "éĮĲ": 3436,
            "éĮĺ": 4755,
            "éĮļ": 5200,
            "éĮł": 2554,
            "éį": 1697,
            "éį¬": 4337,
            "éį®": 3952,
            "éįµ": 2291,
            "éį¼": 2596,
            "éį¾": 3904,
            "éįĭ": 2349,
            "éįį": 5538,
            "éįĶ": 5019,
            "éįĽ": 2542,
            "éİ": 1659,
            "éİ§": 3594,
            "éİ¬": 5562,
            "éİ®": 2276,
            "éİĮ": 2233,
            "éİĸ": 2177,
            "éİļ": 5520,
            "éı": 1921,
            "éı¡": 1936,
            "éıĥ": 4987,
            "éıĳ": 4626,
            "éĲ": 2752,
            "éĲµ": 3918,
            "éĲ¸": 4686,
            "éĲĺ": 2925,
            "éĳ": 1907,
            "éĳ¼": 5419,
            "éĳ½": 3739,
            "éĳ¿": 4696,
            "éĳĳ": 1947,
            "éĳļ": 5553,
            "éĳł": 5398,
            "éĴ": 5226,
            "éĵ": 4632,
            "éĵ¾": 5032,
            "éĶ": 5910,
            "éķ": 554,
            "éķ·": 555,
            "éķ¿": 4506,
            "éĸ": 301,
            "éĸ¢": 542,
            "éĸ£": 1899,
            "éĸ¤": 4230,
            "éĸ¥": 3033,
            "éĸ¨": 5154,
            "éĸ©": 5732,
            "éĸ²": 2100,
            "éĸ»": 4335,
            "éĸ¾": 4392,
            "éĸĢ": 964,
            "éĸĥ": 3636,
            "éĸī": 1691,
            "éĸĭ": 476,
            "éĸı": 3624,
            "éĸĳ": 3132,
            "éĸĵ": 410,
            "éĸĶ": 4763,
            "éĹ": 1433,
            "éĹ¨": 4784,
            "éĹ´": 4771,
            "éĹĩ": 2324,
            "éĹĬ": 4176,
            "éĹį": 5508,
            "éĹķ": 5578,
            "éĹĺ": 1556,
            "éĹľ": 4212,
            "éĺ": 721,
            "éĺª": 1131,
            "éĺ®": 4379,
            "éĺ²": 1020,
            "éĺµ": 5476,
            "éĺ»": 2373,
            "éĺ¿": 2047,
            "éĺľ": 2152,
            "éĻ": 422,
            "éĻ¢": 880,
            "éĻ£": 1992,
            "éĻ¤": 1110,
            "éĻ¥": 2106,
            "éĻª": 4058,
            "éĻ°": 2050,
            "éĻ³": 2614,
            "éĻµ": 2624,
            "éĻ¶": 2461,
            "éĻ¸": 1425,
            "éĻº": 1198,
            "éĻ½": 1577,
            "éĻĢ": 3184,
            "éĻĦ": 2328,
            "éĻĭ": 5689,
            "éĻį": 1129,
            "éĻĲ": 808,
            "éĻĽ": 3395,
            "éĻĿ": 4521,
            "éĻŀ": 5716,
            "éļ": 475,
            "éļ£": 1717,
            "éļ§": 4391,
            "éļ¨": 5335,
            "éļ±": 5279,
            "éļ´": 4884,
            "éļ·": 2398,
            "éļ»": 2667,
            "éļ¼": 3310,
            "éļħ": 2558,
            "éļĨ": 2216,
            "éļĪ": 2940,
            "éļĬ": 1173,
            "éļĭ": 3760,
            "éļİ": 1250,
            "éļı": 2088,
            "éļĶ": 2167,
            "éļķ": 3278,
            "éļĺ": 4048,
            "éļĻ": 2571,
            "éļĽ": 709,
            "éļľ": 1309,
            "éļł": 1749,
            "éĽ": 389,
            "éĽ¢": 1103,
            "éĽ£": 1014,
            "éĽ¨": 1530,
            "éĽª": 1807,
            "éĽ«": 3894,
            "éĽ°": 1766,
            "éĽ²": 2022,
            "éĽ¶": 2906,
            "éĽ·": 2204,
            "éĽ¹": 5380,
            "éĽ»": 696,
            "éĽĢ": 2851,
            "éĽģ": 4110,
            "éĽĦ": 1811,
            "éĽħ": 2321,
            "éĽĨ": 722,
            "éĽĩ": 1920,
            "éĽī": 5000,
            "éĽĮ": 3050,
            "éĽį": 4292,
            "éĽĳ": 1297,
            "éĽĸ": 4698,
            "éĽĻ": 5638,
            "éĽĽ": 3321,
            "éĽľ": 4929,
            "éĽŀ": 5238,
            "éľ": 1055,
            "éľ§": 2778,
            "éľ°": 5268,
            "éľ²": 1769,
            "éľ¹": 5114,
            "éľ½": 5493,
            "éľĢ": 2157,
            "éľĩ": 1558,
            "éľĬ": 1882,
            "éľĸ": 4769,
            "éľľ": 3223,
            "éľŀ": 3084,
            "éĿ": 472,
            "éĿ¡": 4137,
            "éĿ¢": 648,
            "éĿ©": 1526,
            "éĿ±": 3964,
            "éĿ³": 4959,
            "éĿ´": 2077,
            "éĿĤ": 5133,
            "éĿĦ": 5473,
            "éĿĪ": 5690,
            "éĿĴ": 1335,
            "éĿĸ": 3018,
            "éĿĻ": 1498,
            "éĿľ": 5569,
            "éĿŀ": 976,
            "éĿŃ": 3315,
            "éŀ": 2539,
            "éŀ£": 5952,
            "éŀĦ": 3578,
            "éŀĨ": 4172,
            "éŀĭ": 5496,
            "éŀį": 3063,
            "éŀĺ": 3626,
            "éŀł": 4233,
            "éŀŃ": 3021,
            "éŁ": 662,
            "éŁ©": 4492,
            "éŁ®": 4198,
            "éŁ³": 854,
            "éŁ¶": 5281,
            "éŁ»": 3190,
            "éŁ¿": 1161,
            "éŁĭ": 4791,
            "éŁĵ": 1522,
            "éł": 448,
            "éł¬": 2982,
            "éł´": 5120,
            "éł·": 3186,
            "éł¸": 3271,
            "éł»": 2010,
            "éł¼": 1176,
            "éłģ": 3140,
            "éłĤ": 1027,
            "éłĥ": 1168,
            "éłħ": 1361,
            "éłĨ": 1384,
            "éłĪ": 1813,
            "éłĮ": 4678,
            "éłĲ": 2053,
            "éłĳ": 1606,
            "éłĴ": 3722,
            "éłĵ": 3044,
            "éłĺ": 1269,
            "éłļ": 3999,
            "éłŃ": 995,
            "éŃ": 1010,
            "éŃ¯": 3981,
            "éŃģ": 3824,
            "éŃĤ": 2309,
            "éŃĥ": 4830,
            "éŃĦ": 5616,
            "éŃħ": 1585,
            "éŃİ": 5623,
            "éŃı": 3236,
            "éŃĶ": 1540,
            "éŃļ": 1740,
            "ê": 168,
            "ê°": 5657,
            "ê³": 4902,
            "ê³µ": 5857,
            "ê³ł": 5750,
            "ê´": 5962,
            "êµ": 4321,
            "êµŃ": 4486,
            "ê¸": 4762,
            "ê¸°": 4976,
            "ê¹": 5702,
            "ê¹Ģ": 5875,
            "êĴ": 4389,
            "êĴ³": 4636,
            "ë": 169,
            "ë¡": 5753,
            "ë¦": 5420,
            "ë¦¬": 5566,
            "ë§": 5406,
            "ëª": 5421,
            "ë¬": 5977,
            "ë°": 5556,
            "ë³": 5515,
            "ë¶": 4936,
            "ë¶Ģ": 5524,
            "ëĤ": 5142,
            "ëĤĺ": 5727,
            "ëħ": 5860,
            "ëĭ": 4663,
            "ëĭ¤": 5329,
            "ëı": 5392,
            "ëĿ": 5861,
            "ëĿ¼": 5932,
            "ëł": 5585,
            "ì": 170,
            "ì§": 5288,
            "ì§Ģ": 5634,
            "ì¹": 5500,
            "ìĤ¬": 4860,
            "ìĥ": 5841,
            "ìĦ": 4565,
            "ìĦľ": 5371,
            "ìĪ": 5275,
            "ìĪĺ": 5711,
            "ìĬ": 5332,
            "ìĬ¤": 5700,
            "ìĭ": 5033,
            "ìĭľ": 5974,
            "ìĭł": 5999,
            "ìķ": 4967,
            "ìķĦ": 5810,
            "ìĸ": 4451,
            "ìĸ´": 4543,
            "ìĹ": 4856,
            "ìĺ": 5669,
            "ìļ": 5083,
            "ìľ": 5333,
            "ìĿ": 4117,
            "ìĿ´": 4697,
            "ìĿĺ": 5180,
            "ìŀ": 5181,
            "ìł": 4649,
            "ìłķ": 5248,
            "í": 171,
            "íĬ": 5460,
            "íĬ¸": 5792,
            "íķ": 4012,
            "íķ´": 5653,
            "íķĺ": 5682,
            "íķľ": 4362,
            "î": 172,
            "îĢ": 4040,
            "îĢĦ": 4329,
            "îĢī": 5583,
            "ï": 173,
            "ï¦": 5567,
            "ï§": 4985,
            "ï§Ĳ": 5565,
            "ï¨": 3567,
            "ï¨Ĳ": 5790,
            "ï¨ĳ": 3703,
            "ï©": 4675,
            "ï©¨": 5555,
            "ï©Ľ": 5485,
            "ï¸": 2339,
            "ï¸¶": 4728,
            "ï¸İ": 2915,
            "ï¸ı": 2640,
            "ï¹": 4849,
            "ï¹¡": 5998,
            "ï»": 3174,
            "ï»¿": 3180,
            "ï¼": 258,
            "ï¼¡": 1774,
            "ï¼¢": 2103,
            "ï¼£": 1904,
            "ï¼¤": 2019,
            "ï¼¥": 2161,
            "ï¼¦": 2235,
            "ï¼§": 2337,
            "ï¼¨": 2285,
            "ï¼©": 2083,
            "ï¼ª": 2210,
            "ï¼«": 2267,
            "ï¼¬": 2341,
            "ï¼®": 2099,
            "ï¼¯": 2016,
            "ï¼°": 1940,
            "ï¼±": 2946,
            "ï¼²": 2190,
            "ï¼³": 1923,
            "ï¼´": 1998,
            "ï¼µ": 2470,
            "ï¼¶": 2442,
            "ï¼·": 2570,
            "ï¼¸": 2698,
            "ï¼¹": 2920,
            "ï¼º": 3382,
            "ï¼»": 2296,
            "ï¼¼": 2899,
            "ï¼½": 2294,
            "ï¼¾": 1783,
            "ï¼¿": 2782,
            "ï¼ģ": 469,
            "ï¼Ĥ": 4514,
            "ï¼ĥ": 2822,
            "ï¼Ħ": 4118,
            "ï¼ħ": 1314,
            "ï¼Ĩ": 1611,
            "ï¼Ī": 322,
            "ï¼ī": 323,
            "ï¼Ĭ": 1995,
            "ï¼ĭ": 2018,
            "ï¼Į": 938,
            "ï¼į": 1862,
            "ï¼İ": 1452,
            "ï¼ı": 1320,
            "ï¼Ĳ": 814,
            "ï¼ĳ": 678,
            "ï¼Ĵ": 768,
            "ï¼ĵ": 958,
            "ï¼Ķ": 1185,
            "ï¼ķ": 1153,
            "ï¼ĸ": 1344,
            "ï¼Ĺ": 1429,
            "ï¼ĺ": 1422,
            "ï¼Ļ": 1431,
            "ï¼ļ": 769,
            "ï¼Ľ": 2198,
            "ï¼ľ": 2136,
            "ï¼Ŀ": 1587,
            "ï¼ŀ": 1849,
            "ï¼Ł": 608,
            "ï¼ł": 2541,
            "ï¼Ń": 2132,
            "ï½": 539,
            "ï½¡": 2278,
            "ï½¢": 2188,
            "ï½£": 2205,
            "ï½¤": 2184,
            "ï½¥": 1327,
            "ï½§": 3031,
            "ï½¨": 3659,
            "ï½©": 4765,
            "ï½ª": 4139,
            "ï½«": 4465,
            "ï½¬": 3483,
            "ï½®": 3541,
            "ï½¯": 2576,
            "ï½°": 2156,
            "ï½±": 2945,
            "ï½²": 2521,
            "ï½³": 3458,
            "ï½´": 3746,
            "ï½µ": 3696,
            "ï½¶": 2813,
            "ï½·": 2947,
            "ï½¸": 2688,
            "ï½¹": 3929,
            "ï½º": 3328,
            "ï½»": 3391,
            "ï½¼": 2832,
            "ï½½": 2696,
            "ï½¾": 3802,
            "ï½¿": 3883,
            "ï½Ģ": 2072,
            "ï½ģ": 2737,
            "ï½Ĥ": 3299,
            "ï½ĥ": 2742,
            "ï½Ħ": 3283,
            "ï½ħ": 2650,
            "ï½Ĩ": 3949,
            "ï½ĩ": 2917,
            "ï½Ī": 3300,
            "ï½ī": 2775,
            "ï½Ĭ": 4569,
            "ï½ĭ": 2740,
            "ï½Į": 3149,
            "ï½į": 2129,
            "ï½İ": 2995,
            "ï½ı": 2644,
            "ï½Ĳ": 3390,
            "ï½ĳ": 5758,
            "ï½Ĵ": 2972,
            "ï½ĵ": 3008,
            "ï½Ķ": 2857,
            "ï½ķ": 3431,
            "ï½ĸ": 3564,
            "ï½Ĺ": 1850,
            "ï½ĺ": 3616,
            "ï½Ļ": 3160,
            "ï½ļ": 4231,
            "ï½Ľ": 4650,
            "ï½ľ": 1700,
            "ï½Ŀ": 4625,
            "ï½ŀ": 888,
            "ï½Ń": 3450,
            "ï¾": 1073,
            "ï¾Ģ": 2755,
            "ï¾ģ": 3181,
            "ï¾Ĥ": 3671,
            "ï¾ĥ": 3228,
            "ï¾Ħ": 2581,
            "ï¾ħ": 3225,
            "ï¾Ĩ": 3695,
            "ï¾Ī": 3966,
            "ï¾ī": 2654,
            "ï¾Ĭ": 2532,
            "ï¾ĭ": 3407,
            "ï¾Į": 2440,
            "ï¾į": 3116,
            "ï¾İ": 3163,
            "ï¾ı": 3287,
            "ï¾Ĳ": 4088,
            "ï¾ĳ": 3687,
            "ï¾Ĵ": 3558,
            "ï¾ĵ": 4146,
            "ï¾Ķ": 4181,
            "ï¾ķ": 5046,
            "ï¾ĸ": 3807,
            "ï¾Ĺ": 3094,
            "ï¾ĺ": 2975,
            "ï¾Ļ": 2902,
            "ï¾ļ": 3317,
            "ï¾Ľ": 3416,
            "ï¾ľ": 3772,
            "ï¾Ŀ": 2241,
            "ï¾ŀ": 1963,
            "ï¾Ł": 2007,
            "ï¿": 1564,
            "ï¿£": 2907,
            "ï¿¥": 2421,
            "ï¿¼": 5724,
            "ï¿½": 1748,
            "ïĴ": 5050,
            "ïĺ": 4627,
            "ïĺĬ": 5957,
            "ð": 174,
            "ð¤Ń": 4896,
            "ð¤Ń¯": 4900,
            "ðĵ": 5772,
            "ðĸ": 5862,
            "ðĿ": 3948,
            "ðĿĲ": 4525,
            "ðĿĳ": 4990,
            "ðŁ": 1937,
            "ðŁ¤": 3786,
            "ðŁ¤£": 4876,
            "ðŁ¤Ķ": 5369,
            "ðŁ¤Ĺ": 5130,
            "ðŁ¥": 4232,
            "ðŁ¥°": 5512,
            "ðŁ¥º": 5370,
            "ðŁ¦": 4942,
            "ðŁ§": 5388,
            "ðŁĩ": 4786,
            "ðŁĮ": 3569,
            "ðŁĮ¸": 4719,
            "ðŁĮĪ": 5791,
            "ðŁĮİ": 5955,
            "ðŁĮŁ": 4934,
            "ðŁį": 3690,
            "ðŁįĢ": 4855,
            "ðŁįĵ": 5766,
            "ðŁİ": 3267,
            "ðŁİµ": 4258,
            "ðŁİ¶": 4779,
            "ðŁİģ": 5835,
            "ðŁİĦ": 4460,
            "ðŁİī": 5128,
            "ðŁİį": 4660,
            "ðŁı": 3956,
            "ðŁı»": 4418,
            "ðŁĲ": 3857,
            "ðŁĲ¶": 5891,
            "ðŁĲº": 5892,
            "ðŁĳ": 3470,
            "ðŁĳĢ": 5468,
            "ðŁĳĮ": 5539,
            "ðŁĳį": 4412,
            "ðŁĳı": 5129,
            "ðŁĳĶ": 5996,
            "ðŁĴ": 2913,
            "ðŁĴ¡": 5554,
            "ðŁĴ¦": 3666,
            "ðŁĴ§": 5699,
            "ðŁĴ¨": 5971,
            "ðŁĴª": 5350,
            "ðŁĴ«": 5651,
            "ðŁĴģ": 5928,
            "ðŁĴĵ": 4634,
            "ðŁĴķ": 4022,
            "ðŁĴĸ": 4975,
            "ðŁĴĹ": 5404,
            "ðŁĴĽ": 5399,
            "ðŁĴŀ": 5788,
            "ðŁĵ": 4234,
            "ðŁĶ": 3911,
            "ðŁĶ¥": 4457,
            "ðŁĶŀ": 5082,
            "ðŁĸ": 5785,
            "ðŁĺ": 2657,
            "ðŁĺ¢": 4911,
            "ðŁĺ£": 5629,
            "ðŁĺ±": 5497,
            "ðŁĺ³": 5649,
            "ðŁĺĢ": 5247,
            "ðŁĺģ": 4810,
            "ðŁĺĤ": 4518,
            "ðŁĺĥ": 4879,
            "ðŁĺĦ": 5039,
            "ðŁĺħ": 4331,
            "ðŁĺĨ": 4540,
            "ðŁĺĩ": 5970,
            "ðŁĺī": 4983,
            "ðŁĺĬ": 3633,
            "ðŁĺĭ": 5698,
            "ðŁĺĮ": 5006,
            "ðŁĺį": 4953,
            "ðŁĺİ": 5888,
            "ðŁĺĵ": 5927,
            "ðŁĺŃ": 4149,
            "ðŁĻ": 3505,
            "ðŁĻĤ": 5068,
            "ðŁĻĨ": 5597,
            "ðŁĻĩ": 4216,
            "ðŁĻĮ": 4927,
            "ðŁĻı": 4740,
            "ðŁļ": 4824,
            "ðŁŁ": 4666,
            "ðŁŁ§": 5683,
            "ðŁŁ¨": 5809,
            "ñ": 175,
            "ó": 176,
            "Ā": 177,
            "ā": 178,
            "Ă": 179,
            "ă": 180,
            "ą": 181,
            "Ć": 182,
            "ć": 183,
            "Ĉ": 184,
            "ĉ": 185,
            "ċ": 186,
            "Č": 187,
            "Ď": 188,
            "ď": 189,
            "Đ": 190,
            "Ē": 191,
            "ē": 192,
            "Ĕ": 193,
            "ĕ": 194,
            "Ě": 195,
            "ě": 196,
            "Ĝ": 197,
            "ĝ": 198,
            "Ğ": 199,
            "ğ": 200,
            "ġ": 201,
            "Ģ": 202,
            "ģ": 203,
            "Ĥ": 204,
            "Ĥ¬": 4167,
            "ĥ": 205,
            "Ħ": 206,
            "ħ": 207,
            "Ĩ": 208,
            "ĩ": 209,
            "Ī": 210,
            "ī": 211,
            "Ĭ": 212,
            "ĭ": 213,
            "Į": 214,
            "į": 215,
            "İ": 216,
            "ı": 217,
            "Ĳ": 218,
            "ĳ": 219,
            "Ĵ": 220,
            "ĵ": 221,
            "Ķ": 222,
            "ķ": 223,
            "ĸ": 224,
            "Ĺ": 225,
            "ĺ": 226,
            "Ļ": 227,
            "ļ": 228,
            "Ľ": 229,
            "ľ": 230,
            "Ŀ": 231,
            "ŀ": 232,
            "ŀį": 1474,
            "Ł": 233,
            "ł": 234,
            "Ń": 235
        },
        "merges": [
            "ã ģ",
            "ã Ĥ",
            "ã ĥ",
            "ã Ģ",
            "ãģ ®",
            "ãĢ ģ",
            "ãģ Ħ",
            "ãģ «",
            "ãģ Ĺ",
            "ãģ ¦",
            "ãģ §",
            "ãģ ¨",
            "ãĢ Ĥ",
            "ãģ Ł",
            "ãĤ ĭ",
            "ãĤ Ĵ",
            "ãģ ª",
            "ãģ ¯",
            "ãģ Į",
            "ãģ Ļ",
            "ãĥ ¼",
            "ãģ ¾",
            "ï ¼",
            "ãĥ ³",
            "ãģ ĭ",
            "ãģ £",
            "ãĤ Į",
            "ä ¸",
            "ãĤ Ĥ",
            "ãĤ Ĭ",
            "ãģ Ĩ",
            "ãĤ ī",
            "ãģ ĵ",
            "ä º",
            "æ ľ",
            "ãĤ ¹",
            "ãģ ı",
            "ãģ ķ",
            "ãĥ Ī",
            "ç Ķ",
            "å ¤",
            "ãģ Ĥ",
            "å ®",
            "ãĥ «",
            "ãĤ ¤",
            "ä »",
            "ãģ į",
            "å ı",
            "å ħ",
            "ãĤ ĵ",
            "å Ī",
            "ä ½",
            "å Ĳ",
            "å ¹",
            "ãģ ł",
            "æ Ĺ",
            "æ ĸ",
            "ãĤ Ī",
            "ãĥ ĥ",
            "ãģ Ĭ",
            "ãĥ ª",
            "ãģ ĳ",
            "ãĤ ¢",
            "ãĤ ¯",
            "ãģ Ŀ",
            "é ĸ",
            "ãĥ ©",
            "å¹ ´",
            "æĹ ¥",
            "ãĥ »",
            "è ¦",
            "è ¨",
            "é Ģ",
            "ãĢ Į",
            "ãĢ į",
            "è ¡",
            "äº º",
            "é ģ",
            "å Ľ",
            "å Ń",
            "ãĤ ģ",
            "ãģ ©",
            "ãĤ Ħ",
            "ãģ Ī",
            "æ Ģ",
            "ãĥ ¬",
            "ï¼ Ī",
            "ï¼ ī",
            "å ¾",
            "ä ¼",
            "å º",
            "ãĤ ¿",
            "ãģ ¤",
            "ãģ Ľ",
            "ãĤ ·",
            "å¤ §",
            "ãĥ ī",
            "æ ī",
            "ç µ",
            "å ł",
            "è ª",
            "æ Ŀ",
            "ãĥ ķ",
            "å ľ",
            "ãĤ ı",
            "å ĭ",
            "ãĥ Ń",
            "ãĥ Ĺ",
            "ãģ ¡",
            "å Ĭ",
            "æ °",
            "è Ģ",
            "æ Ļ",
            "å ½",
            "ãĤ «",
            "å ¸",
            "ç Ľ",
            "å ¿",
            "ãĤ ¸",
            "ç ´",
            "å ĩ",
            "ãģ ¿",
            "æľ ¬",
            "ãĤ °",
            "æľ Ī",
            "å Ĩ",
            "æ ¥",
            "ãĤ ³",
            "é ĩ",
            "ç Ļ",
            "ä¸ Ģ",
            "ãĥ Ĩ",
            "ç ļ",
            "æ ķ",
            "æ Ń",
            "å °",
            "æ Ī",
            "å į",
            "åĩ º",
            "äº ĭ",
            "æ Ħ",
            "è ĩ",
            "ä¸ Ń",
            "æĻ Ĥ",
            "è¡ Į",
            "ãĥ ¡",
            "åĪ Ĩ",
            "å ¯",
            "ãĥ ŀ",
            "å ¼",
            "ãĤ µ",
            "æĸ ¹",
            "åĲ Ī",
            "é Ľ",
            "å ±",
            "ç ī",
            "å Į",
            "çĶ ¨",
            "ä¼ ļ",
            "åł ´",
            "ãĤ £",
            "å ī",
            "ãģ Ķ",
            "ãĥ ł",
            "ãĤ ¦",
            "ãĥ Ĳ",
            "ä ¿",
            "é ĥ",
            "æ ĺ",
            "ä¸ Ĭ",
            "ãĥ ĩ",
            "æ ³",
            "çĶ Ł",
            "ãģ °",
            "éĸ ĵ",
            "èĩ ª",
            "ç §",
            "æĢ Ŀ",
            "è ©",
            "ç ¤",
            "è ²",
            "åŃ ¦",
            "å ¥",
            "çļ Ħ",
            "å ĵ",
            "è¦ ĭ",
            "é Ļ",
            "ãĥ ģ",
            "æ Į",
            "æ Ľ",
            "ãĥ ĸ",
            "è »",
            "åħ ¥",
            "èĢ ħ",
            "é ¡",
            "å ·",
            "ãģ ĺ",
            "å ĳ",
            "ãĥ Ĭ",
            "ãĤ ª",
            "ãĤ Ń",
            "æ Ķ",
            "è ³",
            "ä½ ľ",
            "ç ľ",
            "åĽ ½",
            "æ° Ĺ",
            "ç ķ",
            "ãĥ ĭ",
            "å® ļ",
            "ãĥ ĵ",
            "æ ł",
            "é ł",
            "ãĥ Ģ",
            "ãĥ ¥",
            "ãĤ į",
            "ä ¾",
            "ãĥ £",
            "ç Ĳ",
            "æ¥ Ń",
            "â Ģ",
            "æī ĭ",
            "ãĥ ĳ",
            "ç ·",
            "ãĤ ¨",
            "è ¿",
            "å¾ Į",
            "æ Ĭ",
            "åľ °",
            "åŃ Ĳ",
            "å £",
            "åĭ ķ",
            "ç Ł",
            "ï¼ ģ",
            "æ İ",
            "çĻ º",
            "é Ŀ",
            "æ §",
            "æ ´",
            "é ļ",
            "éĸ ĭ",
            "ç «",
            "æĢ §",
            "ãģ ļ",
            "åī į",
            "è¨ Ģ",
            "ç Ħ",
            "é «",
            "æ µ",
            "çĲ Ĩ",
            "ãĤ º",
            "ç¤ ¾",
            "å® Ł",
            "ä½ ĵ",
            "ä» Ĭ",
            "å½ ĵ",
            "ãĤ »",
            "é« ĺ",
            "æĸ °",
            "æ ĥ",
            "å¯ ¾",
            "å ķ",
            "éĥ ¨",
            "ãĤ ĩ",
            "çĽ ®",
            "æ ¸",
            "è ĥ",
            "ãĥ Ł",
            "ãĥ §",
            "åĽ ŀ",
            "å¤ ļ",
            "é £",
            "å Ģ",
            "æ ±",
            "ç ¥",
            "æľ Ģ",
            "åĨ ħ",
            "ç ¬",
            "è ī",
            "åħ ¨",
            "è¦ ģ",
            "ä½ ¿",
            "å Ĥ",
            "éĢ ļ",
            "æĿ ¥",
            "åĵ ģ",
            "è Ń",
            "ãĥ ¢",
            "æ ı",
            "æĦ Ł",
            "æĪ Ĳ",
            "å¸ Ĥ",
            "ãĤ §",
            "ãģ Ń",
            "ä» £",
            "ç ¶",
            "ä¸ ĭ",
            "ç ¨",
            "å Ł",
            "åĲ Į",
            "æ ŀ",
            "ä» ¥",
            "çī ©",
            "ï ½",
            "åı ĸ",
            "ç Ń",
            "éĸ ¢",
            "æ§ ĺ",
            "ç ı",
            "ãĥ į",
            "åº ¦",
            "ãģ ³",
            "æ ²",
            "çŁ ¥",
            "åĬ Ľ",
            "è £",
            "è Ī",
            "éĩ ĳ",
            "é ķ",
            "éķ ·",
            "çı ¾",
            "æ³ ķ",
            "åĲ į",
            "ãĥ Ļ",
            "æ ©",
            "å® ¶",
            "ãĥ Ŀ",
            "æī Ģ",
            "æ ¯",
            "ç ©",
            "è ģ",
            "ãĢ Ģ",
            "èĥ ½",
            "çĶ »",
            "ãģ ¹",
            "æķ °",
            "ãĢ İ",
            "åĮ ĸ",
            "ãĢ ı",
            "å¿ ĥ",
            "ç¬ ¬",
            "è¨ ĺ",
            "è §",
            "ãĥ Ħ",
            "æĦ ı",
            "å¤ ī",
            "èĢ ĥ",
            "ãģ »",
            "ç Ĥ",
            "ç« ĭ",
            "åĪ ©",
            "å İ",
            "ãģ ¸",
            "ãĤ ±",
            "å §",
            "ç ¾",
            "æĽ ¸",
            "æĮ ģ",
            "ãģ Ĵ",
            "è ¾",
            "è Ĥ",
            "çĦ ¡",
            "è¡ ¨",
            "æĸ Ļ",
            "æ ¨",
            "æ¥ ½",
            "åı Ĺ",
            "æ´ »",
            "å¥ ³",
            "åĬ ł",
            "æ© Ł",
            "ç§ ģ",
            "ï¼ Ł",
            "ç Ĭ",
            "æľ Ł",
            "åł ±",
            "è© ±",
            "æ ®",
            "æĪ ¦",
            "å® ī",
            "ä½ ķ",
            "å¤ ĸ",
            "ä ¹",
            "ãĢ ħ",
            "ãĥ Ķ",
            "çľ Į",
            "æĿ ±",
            "ãĥ ı",
            "åº Ĺ",
            "æ ¬",
            "æ ĭ",
            "é ħ",
            "ãĥ ¯",
            "çµ Ĳ",
            "ç Ĺ",
            "è «",
            "åķ ı",
            "æ º",
            "æĺ İ",
            "è¨ Ń",
            "ä¸ į",
            "ä¸ ĸ",
            "ãĤ ĥ",
            "éģ ¸",
            "åľ ¨",
            "ãĥ ļ",
            "æĥ ħ",
            "ãĤ ¬",
            "å ĥ",
            "æ Ł",
            "å ģ",
            "ãĤ ½",
            "éĿ ¢",
            "ãĥ ľ",
            "ç¶ ļ",
            "è º",
            "åĪ Ŀ",
            "ãĥ İ",
            "æ ħ",
            "è§ £",
            "å¿ ħ",
            "å° ı",
            "ä¸ »",
            "è ¼",
            "è» Ĭ",
            "éĢ £",
            "é Ł",
            "è ¶",
            "å ¢",
            "è µ",
            "å ĸ",
            "çī ¹",
            "æŀ ľ",
            "åı ¯",
            "ä» ĺ",
            "å± ±",
            "é£ Ł",
            "çµ Į",
            "èī ¯",
            "éģ ĵ",
            "æķ Ļ",
            "ãĥ Ľ",
            "ï¼ ĳ",
            "æĸ ĩ",
            "å£ ²",
            "åĲ ĳ",
            "ä¿ Ŀ",
            "çĬ ¶",
            "ç İ",
            "ãĤ ¡",
            "çĽ ¸",
            "è ĭ",
            "åħ ¬",
            "é ¨",
            "åĵ ¡",
            "æ ¼",
            "ç ½",
            "åı Ĥ",
            "âĢ ¦",
            "å° ĳ",
            "éĽ »",
            "èº «",
            "èª ŀ",
            "äº Ī",
            "ãĤ Ģ",
            "åħ Ī",
            "æ Ĥ",
            "ç´ Ħ",
            "ä¿ ¡",
            "ç ¢",
            "çĶ °",
            "é¡ Į",
            "è¿ ĳ",
            "éļ Ľ",
            "æŃ £",
            "ç ł",
            "çĤ ¹",
            "ç¢ º",
            "ãĤ ¶",
            "è ı",
            "éĢ ģ",
            "ç Ŀ",
            "åĳ ³",
            "æ° ´",
            "éĢ ²",
            "é ĺ",
            "éĽ Ĩ",
            "éĩ į",
            "é¨ ĵ",
            "èª į",
            "å¾ Ĺ",
            "çķ Į",
            "ç ®",
            "é §",
            "å¼ ı",
            "ä» ĸ",
            "æľ ī",
            "å »",
            "ä» ķ",
            "å¿ ľ",
            "æ± º",
            "åĭ Ļ",
            "äº ¬",
            "çµ Ħ",
            "å Ħ",
            "å Ĵ",
            "çĶ £",
            "åĪ ¶",
            "çķ ª",
            "åĪ ĩ",
            "åĨ Ĩ",
            "ãĤ ©",
            "æł ¡",
            "èª ¿",
            "è ĳ",
            "åİ Ł",
            "æł ¼",
            "ç¥ ŀ",
            "ç· ļ",
            "è ±",
            "ãģ ĸ",
            "éĩ İ",
            "å¼ ·",
            "æĮ ĩ",
            "çļ Ĩ",
            "æµ ·",
            "å§ ĭ",
            "éģ ĭ",
            "ç½ ®",
            "æ ¤",
            "è¾ ¼",
            "å¹ ³",
            "ï¼ Ĵ",
            "ï¼ ļ",
            "å ³",
            "åĤ ¬",
            "ãĢ Ĳ",
            "å¸ ¸",
            "å· Ŀ",
            "çŃ ī",
            "å¼ ķ",
            "ãĢ ĳ",
            "æ¬ ¡",
            "ç¤ º",
            "åĴ Į",
            "ãĤ ®",
            "ä» ĭ",
            "åĪ ¥",
            "æ Ĵ",
            "ä½ į",
            "åħ ĥ",
            "é Į",
            "æ² »",
            "å ²",
            "å ŀ",
            "ãĤ ²",
            "åı £",
            "é ¦",
            "ãģ ²",
            "çľ Ł",
            "ãĤ ´",
            "éĥ ½",
            "å½ ¼",
            "ä¾ ¡",
            "è ·",
            "éħ į",
            "è¨ Ī",
            "è© ¦",
            "ãģ Ĳ",
            "ç ³",
            "éģ İ",
            "ãģ ¶",
            "éĻ Ĳ",
            "åĮ º",
            "å³ ¶",
            "æ° ĳ",
            "åķ Ĩ",
            "ç ¿",
            "ï¼ Ĳ",
            "æ ģ",
            "åĤ Ļ",
            "è³ ĩ",
            "çĶ º",
            "ä¾ Ľ",
            "å® ¹",
            "è ¬",
            "ç¾ İ",
            "åŁ º",
            "ä¸ ī",
            "æĶ ¿",
            "çĿ Ģ",
            "å® ¢",
            "è Ħ",
            "éģ ķ",
            "éĮ ²",
            "çµ Ĥ",
            "ä¸ ĩ",
            "å½ ¢",
            "æ ¶",
            "åŀ ĭ",
            "ç ¯",
            "å¥ ½",
            "å· ¥",
            "é ¤",
            "è¡ ĵ",
            "æ¼ Ķ",
            "è³ ª",
            "åĮ Ĺ",
            "å± ĭ",
            "çĻ »",
            "æĶ ¯",
            "åľ Ł",
            "ç´ ł",
            "åĢ ĭ",
            "à ¸",
            "æŃ ¢",
            "åĬ ¹",
            "åº ĥ",
            "éŁ ³",
            "è Ĭ",
            "ç¨ ®",
            "æı Ĳ",
            "åĽ £",
            "äº Į",
            "æĶ ¾",
            "èª ¬",
            "ç© º",
            "çĽ ´",
            "åŃ ĺ",
            "å¤ ©",
            "èī ²",
            "åħ ±",
            "åĸ ¶",
            "ç ¦",
            "ãģ İ",
            "è» į",
            "ãĥ ¤",
            "æµ ģ",
            "æ ·",
            "çĶ ·",
            "èĤ ²",
            "åı Ĭ",
            "äº ¤",
            "èģ ŀ",
            "éĻ ¢",
            "è» ¢",
            "ç¥ Ń",
            "èª Ń",
            "æ³ ¨",
            "è² ·",
            "èģ ·",
            "è ¥",
            "ï½ ŀ",
            "è£ ½",
            "æĺ ł",
            "å£ «",
            "é§ ħ",
            "ä¼ Ŀ",
            "çĶ ³",
            "ä» ¶",
            "èŃ °",
            "èµ ·",
            "é¡ ĺ",
            "éģ Ķ",
            "çĶ ±",
            "æ¤ ľ",
            "èı ¯",
            "æĸ ½",
            "åı İ",
            "ä½ ı",
            "ç ±",
            "æŁ »",
            "åı ·",
            "åĦ ª",
            "åĭ Ŀ",
            "ãĥ ´",
            "æ ļ",
            "æ ¡",
            "æĦ Ľ",
            "çĻ Ĥ",
            "æľ ¨",
            "æĥ ³",
            "ç ģ",
            "ç´ ¹",
            "æº ĸ",
            "æĽ ´",
            "ç§ ĳ",
            "ç ¸",
            "èŃ ·",
            "è¼ ī",
            "å ¦",
            "ç ĭ",
            "æ§ ĭ",
            "è² ©",
            "¢ ¨",
            "æħ ĭ",
            "åĮ »",
            "åį ĺ",
            "å¢ Ĺ",
            "çł Ķ",
            "æĶ ¹",
            "çĦ ¶",
            "ï¼ Į",
            "ç ²",
            "è¶ ³",
            "å ©",
            "æ± Ĥ",
            "å Ļ",
            "åı ¤",
            "å½ ¹",
            "ãĥ Ĵ",
            "å» º",
            "ä» »",
            "åı °",
            "èĳ ī",
            "è¥ ¿",
            "åŁ Ł",
            "é¡ ŀ",
            "ç ¹",
            "è¦ ³",
            "ç³ »",
            "è ĸ",
            "ï¼ ĵ",
            "ä¿ Ĥ",
            "åĨ į",
            "ç´ ħ",
            "ãĥ ¦",
            "æ Ĳ",
            "éĸ Ģ",
            "æĬ ķ",
            "æĬ Ģ",
            "çĹ ĩ",
            "æ¨ ©",
            "æ® ĭ",
            "å½ ±",
            "åĪ ¤",
            "å ¡",
            "ä¼ ģ",
            "è¦ ı",
            "ç® ¡",
            "éĿ ŀ",
            "é ¢¨",
            "åĨ Ļ",
            "éĩ ı",
            "åĥ ı",
            "ç Ī",
            "ä¾ ĭ",
            "å¾ ħ",
            "å¸ «",
            "æİ ¥",
            "éĢ ł",
            "ãĥ ĺ",
            "åģ ¥",
            "æ³ ģ",
            "ãģ ¥",
            "èŃ ĺ",
            "åį Ĭ",
            "ç¿ Ĵ",
            "çĹ ħ",
            "éł Ń",
            "åĲ Ħ",
            "åĳ ¨",
            "è¦ ª",
            "åħ ī",
            "ç© ¶",
            "è¿ Ķ",
            "æĽ ²",
            "è² »",
            "ç§ »",
            "å® ³",
            "è Ĳ",
            "å¼ µ",
            "æĿ Ĳ",
            "åĳ Ĭ",
            "é Ń",
            "æĸ Ń",
            "ç¦ ı",
            "ç¾ ©",
            "éĽ £",
            "æŃ ´",
            "âĢ Ŀ",
            "æ ¿",
            "åĥ į",
            "ç´ °",
            "éĺ ²",
            "åį Ĺ",
            "æľ Ŀ",
            "çĻ ½",
            "åı į",
            "çī Ī",
            "åĳ ¼",
            "éł Ĥ",
            "æĤ ª",
            "æ¶ Ī",
            "æ¸ Ī",
            "åĻ ¨",
            "å° Ĥ",
            "æľ Ľ",
            "è¨ ¼",
            "å± ķ",
            "è« ĩ",
            "æ¯ Ķ",
            "ç¨ ĭ",
            "è« ĸ",
            "æĹ ı",
            "çİ ĭ",
            "æ® µ",
            "è ħ",
            "ãĤ Ĩ",
            "è± ¡",
            "æĿ ĳ",
            "åĢ ¤",
            "ç Ĩ",
            "å® Į",
            "ä¹ Ĺ",
            "è³ ¼",
            "æĹ ©",
            "éģ ©",
            "èĲ ½",
            "é ľ",
            "åĲ «",
            "æŃ »",
            "å¿ µ",
            "åĳ ½",
            "çİ ĩ",
            "ç· ı",
            "æ¯ İ",
            "è· ¯",
            "æº Ģ",
            "ãĤ ¼",
            "æŃ ³",
            "åģ ´",
            "é¤ ¨",
            "å® ¤",
            "ä¿ ®",
            "åį ģ",
            "è¦ ĸ",
            "ï ¾",
            "ãģ ľ",
            "ç Ĵ",
            "å² ¡",
            "ãģ ŀ",
            "åº ·",
            "è© ķ",
            "ç ĸ",
            "æŃ ©",
            "â Ĺ",
            "å¢ ĥ",
            "ãģ µ",
            "è¬ Ľ",
            "åº §",
            "å© ļ",
            "æķ ´",
            "è£ ħ",
            "è³ ŀ",
            "åľ Ĵ",
            "äº Ĩ",
            "é ī",
            "åī ²",
            "å· ŀ",
            "æĿ ¡",
            "çķ °",
            "è į",
            "èĭ ¦",
            "çµ ±",
            "é Ĭ",
            "ä¸ İ",
            "éĽ ¢",
            "çŁ ³",
            "æĭ ħ",
            "åº ľ",
            "ç· ¨",
            "æ¯ Ľ",
            "å° İ",
            "éĻ ¤",
            "å ´",
            "åŃ Ĺ",
            "æ ¹",
            "éĢ Ł",
            "èĭ ±",
            "ç ª",
            "çŃ ĸ",
            "é¡ į",
            "çĴ °",
            "åı ²",
            "æ £",
            "å¤ ª",
            "æĢ ¥",
            "åį Ĵ",
            "å± Ģ",
            "æ¡ Ī",
            "è Ĺ",
            "åį Ķ",
            "éĻ į",
            "ä¸ ¡",
            "éĺ ª",
            "æİ ¢",
            "å£ °",
            "ãĢ ľ",
            "æı ´",
            "å® ®",
            "ä½ İ",
            "å¸ °",
            "å± ŀ",
            "ãĥ ¨",
            "æĴ ĥ",
            "è¿ ½",
            "æŃ Į",
            "å® ħ",
            "ç¬ ĳ",
            "è ¢",
            "æŁ ĵ",
            "éĢ ±",
            "ç± ³",
            "è¦ ļ",
            "é Ĥ",
            "å¤ «",
            "ï¼ ķ",
            "èĸ ¬",
            "è» ½",
            "èĪ ¬",
            "åĽ ³",
            "åı ĭ",
            "ç Į",
            "é »",
            "éŁ ¿",
            "ä¼ ĳ",
            "å¤ ±",
            "åİ »",
            "è¦ §",
            "æ¸ Ľ",
            "åħ ·",
            "éł ĥ",
            "âĢ »",
            "æ »",
            "æ° ı",
            "å¾ ©",
            "éļ Ĭ",
            "æ į",
            "é¦ ¬",
            "éł ¼",
            "åĽ ²",
            "å¤ ľ",
            "è² ł",
            "æĻ ®",
            "æ¯ į",
            "èĬ ±",
            "çĭ ¬",
            "é£ ²",
            "ï¼ Ķ",
            "ç °",
            "ç© į",
            "åĩ ¦",
            "æ· ±",
            "æľ «",
            "æı Ľ",
            "è© ³",
            "ä¾ ¿",
            "èĪ Ĺ",
            "æł ª",
            "æĭ ¡",
            "æĴ ®",
            "éĻ º",
            "æī ĵ",
            "âĢ ľ",
            "æľ ª",
            "åŁ İ",
            "é º",
            "çĲ ĥ",
            "å¾ ¡",
            "æİ ²",
            "èĪ Ī",
            "çĤ º",
            "éĢ Ģ",
            "å¸ ¯",
            "éī Ħ",
            "æĪ ¸",
            "ãģ ¼",
            "åĬ ©",
            "é¡ Ķ",
            "äº ķ",
            "æĹ ħ",
            "å· ®",
            "åĽ ł",
            "å Ŀ",
            "ç ħ",
            "è Į",
            "åĭ ¢",
            "è ¤",
            "ç° ¡",
            "ç§ °",
            "ç¨ İ",
            "åħ µ",
            "â ĺ",
            "çģ «",
            "æī ķ",
            "å® Ī",
            "æ¸ ©",
            "èª °",
            "åĬ ´",
            "æ´ ¾",
            "æ¨ ª",
            "æĬ ŀ",
            "ç´ ļ",
            "ç· Ĵ",
            "ç® Ĺ",
            "åį ĥ",
            "äº ī",
            "ç¯ ī",
            "æ¿ Ģ",
            "ç² ¾",
            "è¶ Ĭ",
            "ç¶ Ļ",
            "èµ ¤",
            "éļ İ",
            "èĭ ¥",
            "è¶ ħ",
            "æ¨ Ļ",
            "åį °",
            "æħ ®",
            "èµ °",
            "å® ĺ",
            "æ¥ µ",
            "å¯ Ħ",
            "æĮ Ļ",
            "æł ¹",
            "çĪ ¶",
            "å´ İ",
            "æŃ ¦",
            "æī ±",
            "è¡ Ģ",
            "æĿ ¾",
            "å¾ ĵ",
            "éł ĺ",
            "åħ ļ",
            "çµ ¦",
            "å± ħ",
            "æ Ĩ",
            "æ ĳ",
            "æ ¦",
            "èĹ ¤",
            "æ¨ ¡",
            "æĶ »",
            "çŃ Ķ",
            "éĥ ¡",
            "è °",
            "å ¨",
            "çĹ Ľ",
            "çµ ¶",
            "è° ·",
            "èĤ Į",
            "èĦ ±",
            "å± Ĭ",
            "æ ½",
            "ãģ ±",
            "æĺ Ń",
            "è± Ĭ",
            "è£ ľ",
            "æľ į",
            "æī ¿",
            "æĮ ¯",
            "éĽ ĳ",
            "åĥ ķ",
            "æĬ ľ",
            "é£ Ľ",
            "è¤ ĩ",
            "çĨ ±",
            "è¾ º",
            "æ² ¢",
            "å§ Ķ",
            "ç¯ Ģ",
            "æ¦ Ĥ",
            "è¿ °",
            "éļ ľ",
            "åī µ",
            "å¹ ¸",
            "æİ Ī",
            "çµ ¡",
            "ï¼ ħ",
            "æ¸ ¡",
            "å¸ Į",
            "æĲ º",
            "å¯ Į",
            "çľ ģ",
            "ï¼ ı",
            "çĽ £",
            "çł ´",
            "ç į",
            "æķ ħ",
            "ä¹ ħ",
            "çŁ Ń",
            "ï½ ¥",
            "å¤ ı",
            "æİ ¡",
            "â Ļ",
            "åı ¸",
            "æ© ĭ",
            "å¾ ´",
            "æİ ¨",
            "éĿ Ĵ",
            "é» Ĵ",
            "åĪ Ĺ",
            "åħ Ĳ",
            "èª ²",
            "æ¬ ²",
            "æ ĵ",
            "å¥ ĳ",
            "æĺ Ł",
            "ï¼ ĸ",
            "é¤ Ĭ",
            "æĪ »",
            "èĤ ī",
            "åĽ Ľ",
            "ç´ Ģ",
            "å° Ĩ",
            "è¢ «",
            "ç± į",
            "ãĥ ¶",
            "è² ¡",
            "æ ¢",
            "çª ģ",
            "ç´ ¢",
            "è¨ ³",
            "å§ ¿",
            "éĬ Ģ",
            "éł ħ",
            "å° ±",
            "æµ ľ",
            "æĽ ľ",
            "èĳ Ĺ",
            "å¯ Ł",
            "æĪ ĳ",
            "ç´ į",
            "é¦ ĸ",
            "ç« ¯",
            "æķ Ĺ",
            "â Ĩ",
            "æ¸ ¯",
            "çķ ¥",
            "è¡ Ĺ",
            "æı ı",
            "æĻ ¯",
            "éģ Ĭ",
            "éĥ İ",
            "â ĸ",
            "æŃ ¯",
            "æĺ ¥",
            "æĽ ¿",
            "éł Ĩ",
            "è¨ ±",
            "æ® º",
            "é ³",
            "ç· ´",
            "éģ ł",
            "åº «",
            "ç« ¶",
            "å¾ Ĵ",
            "èĬ ¸",
            "éĢ Ķ",
            "è¨ ª",
            "çķ Ļ",
            "èĩ ´",
            "ç´ Ļ",
            "è¨ º",
            "åĸ Ħ",
            "åľ §",
            "éħ ¸",
            "é ½",
            "å Ķ",
            "å¯ º",
            "æº Ĳ",
            "è¡ Ľ",
            "å¸ ĥ",
            "è« ĭ",
            "æ± Ł",
            "ä½ Ĳ",
            "å «",
            "æ´ ĭ",
            "æĤ ©",
            "åı ³",
            "å® ¿",
            "åĢ Ł",
            "ç§ ĭ",
            "æĺ ¨",
            "éģ º",
            "å¸ Ń",
            "ï¼ ĺ",
            "åĭ Ł",
            "åĬ Ł",
            "éĻ ¸",
            "è¼ ĥ",
            "å¥ Ī",
            "æŀ ļ",
            "ï¼ Ĺ",
            "èĪ ¹",
            "ï¼ Ļ",
            "é½ ¢",
            "é Ĺ",
            "è Ĩ",
            "èĪ ŀ",
            "æ³ ¢",
            "åĭ ¤",
            "çĿ £",
            "èŃ ¦",
            "ãģ ģ",
            "è¿ İ",
            "é¦ Ļ",
            "ç¹ Ķ",
            "èģ ´",
            "åĬ ĩ",
            "ä½ Ļ",
            "è Ļ",
            "æģ ¯",
            "çģ ½",
            "æĿ ¿",
            "äº Ķ",
            "ï¼ İ",
            "æİ Ľ",
            "æ´ Ĺ",
            "ç¨ ¿",
            "ä» ¤",
            "ä¾ Ŀ",
            "çĦ ¼",
            "è¾ ²",
            "ä¸ ¦",
            "æ¸ ¬",
            "æķ µ",
            "å· »",
            "å¹ ħ",
            "åĭ ī",
            "åĢ Ĵ",
            "èĪ ª",
            "éħ Ĵ",
            "æĬ ¼",
            "è¬ Ŀ",
            "æĤ £",
            "åĲ ī",
            "æĭ ł",
            "ŀ į",
            "çħ §",
            "åĽ °",
            "å· ¦",
            "æ¸ ħ",
            "å¯ Ĩ",
            "è Ķ",
            "åĨ ·",
            "ä¼ Ĭ",
            "åº Ń",
            "å¼ ģ",
            "èĥ Į",
            "æģ ĭ",
            "è³ ľ",
            "éĢ Ĩ",
            "âĻ ª",
            "çµ µ",
            "åħ «",
            "æ´ ¥",
            "å¦ »",
            "æĹ §",
            "çĽ Ľ",
            "è ŀį",
            "åį ļ",
            "éĿ Ļ",
            "çĽ Ĭ",
            "è² ¬",
            "æ£ ®",
            "åħ ħ",
            "çİ ī",
            "ç¸ ¾",
            "å¼ ¾",
            "ä» ²",
            "å¤ ®",
            "æĬ Ĺ",
            "æķ £",
            "å° Ħ",
            "è¨ İ",
            "çļ ĩ",
            "ç« ł",
            "è§ ¦",
            "çĸ ĳ",
            "æµ ®",
            "ç¾ ¤",
            "èª Į",
            "åį ±",
            "è§ Ĵ",
            "å¿ Ĺ",
            "éŁ ĵ",
            "ãĤ ¾",
            "åĸ ľ",
            "èĮ ¶",
            "éĿ ©",
            "å ¬",
            "ç ĩ",
            "çŃ ĭ",
            "éĽ ¨",
            "æł Ħ",
            "å¢ ĵ",
            "ä¸ ģ",
            "å» ĥ",
            "å¤ ¢",
            "åī ¤",
            "è ¸",
            "æ³ ī",
            "è² ¨",
            "éŃ Ķ",
            "èº į",
            "ä¹ Ŀ",
            "ä» ®",
            "æ² ³",
            "é ®",
            "éģ ħ",
            "æĲ į",
            "ä¿ º",
            "å¯ Ŀ",
            "å¯ ©",
            "çĬ ¬",
            "ç¨ ¼",
            "åħ ¸",
            "çį ²",
            "æ¤ į",
            "éĹ ĺ",
            "åģ ľ",
            "éľ ĩ",
            "ãģ ¬",
            "åį Ī",
            "é ª",
            "èģ ĸ",
            "åį ł",
            "ï ¿",
            "å¾ ĭ",
            "å» ¶",
            "èĶ µ",
            "åł Ĥ",
            "ä¼ ¼",
            "åĽ º",
            "è¡ Ĩ",
            "éģ ¿",
            "æ¬ ł",
            "è³ Ģ",
            "åİ ³",
            "åĤ ·",
            "éĻ ½",
            "è£ ģ",
            "çļ ®",
            "çľ ĭ",
            "å« Į",
            "å¿ ĺ",
            "æ· ·",
            "âĺ Ĩ",
            "éŃ ħ",
            "åĢ ī",
            "ï¼ Ŀ",
            "å± ¤",
            "è² ´",
            "é® ®",
            "æĹ ¢",
            "èį ·",
            "éª ¨",
            "å¥ ı",
            "åĢ į",
            "äº ¡",
            "å¿ «",
            "åī ¯",
            "è¼ ¸",
            "çľ ł",
            "âĢ ķ",
            "æ ĩ",
            "æĵ į",
            "æħ £",
            "ãĥ Į",
            "éł ĳ",
            "ä¹ ³",
            "âĹ ĭ",
            "æĻ ´",
            "ä¸ ¸",
            "ï¼ Ĩ",
            "å· ±",
            "åĢ Ļ",
            "ç· ł",
            "æľ Ń",
            "æļ ®",
            "éģ £",
            "çĽ ¤",
            "èĢ ģ",
            "è· ¡",
            "æĺ ĵ",
            "ç¿ Į",
            "å° ¾",
            "ä¼ ´",
            "çĮ «",
            "ç¶ Ń",
            "å£ Ĭ",
            "å¸ Ŀ",
            "è¿ ·",
            "çĻ ¾",
            "åĲ ¸",
            "âĨ Ĵ",
            "æŀ Ĺ",
            "å² ©",
            "å¾ ³",
            "åī ĩ",
            "æĬ ±",
            "åī Ĭ",
            "èī ¦",
            "åĦ Ħ",
            "åĨ ¬",
            "é³ ¥",
            "ç¦ ģ",
            "æ¼ «",
            "æĺ ¯",
            "å¬ ī",
            "ç¥ Ŀ",
            "åŃ £",
            "æ° ¸",
            "ç¯ Ħ",
            "è£ ı",
            "åĪ Ĭ",
            "è² ¸",
            "èį ī",
            "å® ĩ",
            "äº Ĵ",
            "æ¶ ²",
            "ç½ ª",
            "é İ",
            "å© ¦",
            "Ã Ĺ",
            "å® Ĺ",
            "âĺ ħ",
            "çŃ Ĩ",
            "â Ķ",
            "ä¹ ±",
            "è¼ ª",
            "æ± ł",
            "èĩ ³",
            "æģ Ĳ",
            "æĺ ĩ",
            "åº ķ",
            "åĲ Ľ",
            "ç§ ĺ",
            "æĥ ĳ",
            "ç³ ĸ",
            "åİ ļ",
            "è« ¸",
            "éĢ ĥ",
            "æĺ Ķ",
            "çī ĩ",
            "ç £",
            "å£ ģ",
            "æŀ Ĳ",
            "âĸ ł",
            "é« ª",
            "çĮ ®",
            "ç ŀ",
            "ç¹ °",
            "çĬ ¯",
            "éĸ ī",
            "ãĤ ¥",
            "å¨ ĺ",
            "åĪ °",
            "åĿ Ĥ",
            "æ² ĸ",
            "é į",
            "å¼ ±",
            "åĲ ¦",
            "ï½ ľ",
            "ä¸ Ī",
            "åĪ ¸",
            "ä¼ ¸",
            "æĬ ĺ",
            "åĭ §",
            "åĬ ª",
            "éº »",
            "é ¹",
            "å¥ ¥",
            "ãģ ½",
            "æ³ Ĭ",
            "æ² ¹",
            "ä½ µ",
            "åĪ º",
            "å¹ ķ",
            "ãĤ ħ",
            "éļ £",
            "çĪ Ĩ",
            "èĩ ¨",
            "ç´ Ķ",
            "é ©",
            "âĹ ı",
            "éĩ Į",
            "å® £",
            "èħ ¹",
            "å¼ Ł",
            "åĤ ¾",
            "åį ´",
            "åĿ ĩ",
            "èı ľ",
            "èĦ ³",
            "å¹ ¼",
            "èª ķ",
            "ç¤ ¼",
            "åĪ »",
            "é§ Ĳ",
            "é© ļ",
            "è¾ ŀ",
            "æķ ·",
            "éŃ ļ",
            "æģ µ",
            "ç¸ Ħ",
            "æķ ĳ",
            "åŁ ·",
            "åĪ ĳ",
            "èĦ Ĥ",
            "æĬ ĳ",
            "ï¿ ½",
            "éļ ł",
            "å² ¸",
            "è© ŀ",
            "è· Ŀ",
            "å® Ŀ",
            "ç§ Ģ",
            "åħ į",
            "æį ķ",
            "é¹ ¿",
            "æļ Ĺ",
            "åº Ĭ",
            "çĶ ²",
            "åħ Ħ",
            "å¡ Ĺ",
            "èı Į",
            "æ¹ ¾",
            "èĩ £",
            "éĽ °",
            "è¸ ı",
            "èª ĺ",
            "éľ ²",
            "çĸ ²",
            "è³ ĥ",
            "æ² ¿",
            "æı ®",
            "ï¼ ¡",
            "èĸ Ħ",
            "é§ Ĩ",
            "ç¸ ®",
            "â ĳ",
            "åį ³",
            "ç¾ ½",
            "è ´",
            "åħ Ń",
            "ï¼ ¾",
            "æ· »",
            "åĮ ħ",
            "æĳ Ĥ",
            "æ» ħ",
            "å ĺ",
            "åº ģ",
            "æĲ Ń",
            "é£ ¯",
            "çĤ İ",
            "æµ ¦",
            "çĨ Ĭ",
            "ä¹ ¾",
            "çł ²",
            "æı ¡",
            "ç· Ĭ",
            "éĩ Ŀ",
            "æ¿ ĥ",
            "å¯ Ĵ",
            "èĢ Ĳ",
            "æ¨ ¹",
            "çł Ĥ",
            "æŁ Ħ",
            "è¡ £",
            "éĽ ª",
            "è ĵ",
            "à ¹",
            "é¡ §",
            "éĽ Ħ",
            "éº Ĺ",
            "éł Ī",
            "å¼ Ĭ",
            "æĿ Ł",
            "ç Ģ",
            "å¦ Ĭ",
            "è¢ ĭ",
            "çª ĵ",
            "æĮ ĳ",
            "èª ¤",
            "è¨ ´",
            "å² Ĳ",
            "ç¥ ¨",
            "çĽ Ł",
            "ç¥ ī",
            "å¡ ©",
            "å¤ ķ",
            "èĥ ŀ",
            "éĤ £",
            "â Ī",
            "è£ ķ",
            "èĪ İ",
            "æİ Ĵ",
            "æĺ ¼",
            "ç¸ ģ",
            "è© ²",
            "é£ ¾",
            "çľ ¼",
            "ä¸ ĥ",
            "å· ¨",
            "èĦ ļ",
            "å¹ ¹",
            "éĥ ·",
            "æĳ ĺ",
            "å· ¡",
            "æī ¹",
            "ä¹ ĭ",
            "ï¼ ŀ",
            "ï½ Ĺ",
            "åĤ µ",
            "âĹ Ĩ",
            "è¶ £",
            "åı Ī",
            "Â ´",
            "æ¡ ľ",
            "çŀ ¬",
            "æļ ´",
            "çĨ Ł",
            "è Ĵ",
            "èĢ ³",
            "ï¼ į",
            "ç¤ İ",
            "æĪ ¿",
            "æµ ´",
            "çĶ ĺ",
            "æł ¸",
            "æ± ļ",
            "æ¹ ¯",
            "å¾ ®",
            "éĢ ı",
            "ç· ĳ",
            "æĨ ¶",
            "è© °",
            "ç¹ ĭ",
            "è¿ «",
            "è¥ ²",
            "åħ ¼",
            "ä» ı",
            "æĢ ĸ",
            "åĲ ¹",
            "éľ Ĭ",
            "ç§ Ĵ",
            "è± Ĩ",
            "æ® ¿",
            "é Ĩ",
            "åĢ «",
            "æİ ĥ",
            "ç® ±",
            "ç« ¥",
            "çĢ ¬",
            "æĢ ª",
            "å± ¥",
            "å¹ Į",
            "å¡ ļ",
            "çĩ ĥ",
            "æ» ŀ",
            "æ¹ ¿",
            "éĸ £",
            "å¯ ¿",
            "ç© ´",
            "æĭ Ľ",
            "å¯ §",
            "ï¼ £",
            "æŀ ł",
            "æŁ Ķ",
            "é ĳ",
            "å´ ©",
            "èĻ «",
            "æ¬ §",
            "è¡ Ŀ",
            "ç¥ ĸ",
            "æĤ ²",
            "å® Ļ",
            "ç¹ ģ",
            "èį Ĵ",
            "ä¿ ĥ",
            "é ¬",
            "è² ¢",
            "éĽ ĩ",
            "é ı",
            "æ¼ ¢",
            "ï¼ ³",
            "èĹ ©",
            "å¥ ª",
            "åī £",
            "åŁ ¼",
            "å¾ ¹",
            "èħ ķ",
            "å¥ ĩ",
            "ãĢ ĭ",
            "å§ ī",
            "ç² §",
            "ãĢ Ĭ",
            "æį ¨",
            "éı ¡",
            "ð Ł",
            "è· µ",
            "è¨ Ĺ",
            "ï¼ °",
            "é ¼",
            "ä¾ µ",
            "é ¶",
            "çĤ Ń",
            "èĩ Ń",
            "æĨ ²",
            "éĳ ĳ",
            "è¨ ĵ",
            "æ¸ ĭ",
            "é» Ħ",
            "æ¢ °",
            "åĪ ·",
            "çī Ľ",
            "æĢ Ĵ",
            "à¸ ²",
            "é£ ¼",
            "èĥ ¸",
            "ãģ ·",
            "è¼ ©",
            "æħ ¢",
            "è´ Ī",
            "æļ ĳ",
            "ï¾ ŀ",
            "å¹ ²",
            "èĩ ĵ",
            "èª ł",
            "éĥ µ",
            "éĤ ¦",
            "åĦ Ģ",
            "æı ĥ",
            "ä» Ļ",
            "éĤ Ħ",
            "æĿ ¯",
            "ç ¡",
            "å¿ Ļ",
            "è© ©",
            "å½ ©",
            "è¾ Ľ",
            "èħ °",
            "æĹ ¦",
            "åĦ Ł",
            "å¦ Ļ",
            "èĤ ©",
            "æļ ĸ",
            "ç¶ º",
            "åĳ Ĥ",
            "ç½ ²",
            "æ¢ ħ",
            "æī į",
            "é§ Ħ",
            "åľ ı",
            "éĻ £",
            "å ª",
            "å° Ĭ",
            "ï¼ Ĭ",
            "å¦ ¹",
            "èĤ ª",
            "ï¼ ´",
            "èı ĵ",
            "éĤ ª",
            "ä¿ ³",
            "è± ª",
            "åŁ ĭ",
            "ç« ¹",
            "å¥ ´",
            "é Ī",
            "ï¾ Ł",
            "æ¯ Ĵ",
            "à¸ £",
            "éł »",
            "ç² ī",
            "æĳ ©",
            "èŃ ²",
            "æĭ ¬",
            "æĬ µ",
            "ï¼ ¯",
            "æ¹ ĸ",
            "ï¼ ĭ",
            "ï¼ ¤",
            "è³ Ľ",
            "åĶ ¯",
            "éĽ ²",
            "æ½ Ł",
            "çĿ ¡",
            "ä¿ Ĺ",
            "æ³ £",
            "åĨ Ĭ",
            "æĬ Ĭ",
            "æİ §",
            "çĩ ¥",
            "éĩ Ī",
            "é ĭ",
            "æ» ĳ",
            "èĳ ¬",
            "ç¨ ²",
            "é¬ ¼",
            "è² ¯",
            "æ ¾",
            "çĭ Ń",
            "é³ ´",
            "æ¸ ī",
            "éĬ ĥ",
            "æĹ ¨",
            "æĹ ¬",
            "å° ģ",
            "åĭ ĩ",
            "éĺ ¿",
            "åģ µ",
            "è¼ Ŀ",
            "éĻ °",
            "çĭ Ļ",
            "åį µ",
            "éł Ĳ",
            "å¡ ¾",
            "çĽ Ĺ",
            "æĩ ¸",
            "å° ½",
            "Ï ī",
            "æ½ ľ",
            "çĪ µ",
            "åģ ½",
            "ãģ ´",
            "æµ ħ",
            "å¥ ¨",
            "æ® Ĭ",
            "ä¸ ¹",
            "æ£ Ħ",
            "âĢ Ķ",
            "æĭ Ŀ",
            "æ² ¡",
            "å¨ ł",
            "ï½ Ģ",
            "çŁ ¢",
            "åĸ «",
            "åĴ ²",
            "æ± Ĺ",
            "éĿ ´",
            "åĶ ±",
            "ãĤ Ļ",
            "å¨ ģ",
            "æ ¢¨",
            "æķ ¬",
            "ï¼ ©",
            "å¡ ģ",
            "åŃ «",
            "åŁ ¹",
            "å° ¿",
            "éļ ı",
            "èĨ ļ",
            "è» ¸",
            "éĩ £",
            "åı ¥",
            "å¿ ł",
            "æ¼ ı",
            "é ¾",
            "ç£ ¨",
            "èª ĩ",
            "è» Į",
            "ï¼ ®",
            "éĸ ²",
            "ç¥ Ī",
            "çĸ ¾",
            "ï¼ ¢",
            "éħ µ",
            "åĵ ²",
            "éĻ ¥",
            "åĩ Ħ",
            "èĤ Ŀ",
            "åı Į",
            "ä¸ ĺ",
            "çħ Ļ",
            "è² ¼",
            "æ² ¼",
            "æĬ ½",
            "çı į",
            "é¨ İ",
            "å¸ ³",
            "çĻ Ĵ",
            "ç¡ ¬",
            "ç¶ ²",
            "èĦ Ī",
            "å¾ Ĳ",
            "å§ «",
            "ç³ ¸",
            "æħ ¶",
            "å¦ Ĥ",
            "ä¼ º",
            "æŃ ĵ",
            "ï½ į",
            "ç¿ »",
            "éĪ ´",
            "ï¼ Ń",
            "é¾ į",
            "çİ Ħ",
            "éģ Ĥ",
            "ï¼ ľ",
            "æļ ĩ",
            "ç· ©",
            "æº ¶",
            "èħ ¸",
            "ç¸ ¦",
            "è² «",
            "âĶ ģ",
            "æĤ Ķ",
            "æµ Ħ",
            "çģ ¯",
            "æĴ ¤",
            "æİ ĺ",
            "èĬ Ŀ",
            "é¨ Ĵ",
            "è² °",
            "éĺ ľ",
            "è Ľ",
            "èĤ ¥",
            "âĶ Ģ",
            "ï½ °",
            "éľ Ģ",
            "æį ľ",
            "æĭ Ĵ",
            "è¨ Ĥ",
            "ï¼ ¥",
            "è» Ł",
            "å½ ¦",
            "è ĺ",
            "çī §",
            "ç« ľ",
            "éļ Ķ",
            "é¼ »",
            "è² §",
            "äº ľ",
            "ä¼ ı",
            "åĨ Ĵ",
            "âĢ ĵ",
            "éģ ĩ",
            "ç´ «",
            "ä» ģ",
            "éİ ĸ",
            "ä» °",
            "æĻ ©",
            "æŁ ±",
            "é¶ ´",
            "æĬ «",
            "å® ľ",
            "ï½ ¤",
            "åº ı",
            "ç ĵ",
            "æķ ı",
            "ï½ ¢",
            "æ¶ ¯",
            "ï¼ ²",
            "å° »",
            "èĤ ¢",
            "ç´ Ľ",
            "çĦ ¦",
            "çµ ŀ",
            "æµ ¸",
            "à¸ Ļ",
            "ï¼ Ľ",
            "èĮ ¨",
            "èĴ ¸",
            "æģ ¥",
            "æŀ Ŀ",
            "åģ ¶",
            "éĽ ·",
            "ï½ £",
            "è¸ Ĭ",
            "æ² Ī",
            "åĩ į",
            "èĨ ľ",
            "ï¼ ª",
            "å¼ ĺ",
            "åĬ £",
            "âĢ ¢",
            "æĻ º",
            "èª ī",
            "éļ Ĩ",
            "ç® ĩ",
            "å¥ ī",
            "à¸ ģ",
            "èĵ Ħ",
            "æ¿ ¯",
            "ç ĥ",
            "å° ļ",
            "åĥ ļ",
            "âĪ Ĵ",
            "æĤ Ł",
            "çķ ĳ",
            "ãģ ĩ",
            "æ½ ®",
            "éº ¦",
            "ä¼ ¯",
            "åĬ ±",
            "éİ Į",
            "æ¬ Ħ",
            "ï¼ ¦",
            "ãĢ ĩ",
            "ç¿ ¼",
            "ä¹ Ł",
            "éĬ Ń",
            "éĢ ®",
            "ï¾ Ŀ",
            "æ¼ ģ",
            "è¦ Ĩ",
            "å« ģ",
            "å¹ ¾",
            "åł Ģ",
            "å¡ Ķ",
            "æĻ ¶",
            "æİ ª",
            "æ® ĸ",
            "Ã £",
            "è³ ¢",
            "æł ½",
            "æĿ ī",
            "æŀ ¶",
            "æĹ Ĺ",
            "å¾ Ħ",
            "åĪ Ģ",
            "çį £",
            "éħ ·",
            "æ° ·",
            "è ½",
            "æ¶ Ļ",
            "æĩ Ĳ",
            "æı ļ",
            "çľ º",
            "ï¼ «",
            "è¦ ĩ",
            "ç¨ ļ",
            "åĨ ł",
            "è¬ Ģ",
            "å± Ī",
            "è£ Ĥ",
            "æļ ¦",
            "âĨ ĵ",
            "éİ ®",
            "çĭ Ĥ",
            "ï½ ¡",
            "æł ĥ",
            "è« ¦",
            "à¸ ĩ",
            "ç¹ Ĭ",
            "éģ Ń",
            "éħ ¬",
            "ï¼ ¨",
            "éħ Ķ",
            "å° ĭ",
            "æ¾ ¤",
            "âĢ Ļ",
            "èĨ ¨",
            "éį µ",
            "è» Ĵ",
            "æ£ Ł",
            "ï¼ ½",
            "èĮ Ĥ",
            "ï¼ »",
            "åĭ ĺ",
            "æĪ Ĵ",
            "æ£ Ĵ",
            "è¬ İ",
            "åŀ £",
            "æį ī",
            "Â »",
            "å µ",
            "å¾ Ģ",
            "åģ ı",
            "çĭ ¼",
            "æ» Ŀ",
            "éŃ Ĥ",
            "æĮ ¨",
            "æĭ ¶",
            "æ± ģ",
            "æ¶ ¼",
            "æħ İ",
            "éº º",
            "è« ¾",
            "çĸ «",
            "ç² Ĵ",
            "å¾ ģ",
            "æı º",
            "éĽ ħ",
            "å¥ ®",
            "å¡ ŀ",
            "éĹ ĩ",
            "â Ħ",
            "å¯ Ľ",
            "éī ±",
            "éĻ Ħ",
            "ç£ ģ",
            "éĬ ĺ",
            "äº Ģ",
            "ç ĳ",
            "é» Ļ",
            "ãĢ ī",
            "é¡ ķ",
            "åĲ Ĳ",
            "ï¼ §",
            "å ¶",
            "ï ¸",
            "ç· ¯",
            "ï¼ ¬",
            "æĮ ¿",
            "æ¡ ĥ",
            "è¤ Ĵ",
            "èĦ ĩ",
            "åĺ ĺ",
            "æ» ĭ",
            "ç¾ ħ",
            "éį ĭ",
            "æ½ Ķ",
            "ç¶ ¿",
            "ç¶ ±",
            "æĵ ¬",
            "èħ Ĳ",
            "ä¹ ĥ",
            "å¢ ³",
            "è ľ",
            "èı ±",
            "æģ ©",
            "æĸ İ",
            "â ī",
            "æħ °",
            "åį ĵ",
            "ç½ °",
            "è² ¿",
            "åª Ĵ",
            "ãĢ Ī",
            "èĸ ¦",
            "ç² ĭ",
            "âĳ ł",
            "âĻ ¡",
            "åĤ ĺ",
            "éĺ »",
            "æ£ ļ",
            "åı ¬",
            "å· £",
            "åĻ Ĥ",
            "æ´ ŀ",
            "èĥ ĥ",
            "å² ³",
            "èħ «",
            "åŀ Ĥ",
            "å½ °",
            "åĮ ł",
            "çĹ ©",
            "Â ·",
            "èĦ ħ",
            "å Ĺ",
            "é ·",
            "åŃ ¤",
            "æ³ ³",
            "éī Ľ",
            "æĭ ĵ",
            "å§ ĵ",
            "åĮ ¹",
            "âĪ Ģ",
            "æŁ ³",
            "éļ ·",
            "æģ Ĵ",
            "ä¿ Ĭ",
            "æ· ¡",
            "è¡ °",
            "æ¤ ħ",
            "éĤ ¸",
            "å¹ »",
            "çį Ħ",
            "åł ħ",
            "æ½ ¤",
            "åª Ľ",
            "æĸ ľ",
            "åħ Ĩ",
            "å¼ ¦",
            "å¹ ¡",
            "éĥ Ĭ",
            "çĮ Ľ",
            "çŃ Ĵ",
            "à¸ ±",
            "èį ĺ",
            "èŃ ľ",
            "åĶ Ĳ",
            "ï¿ ¥",
            "éĢ ¸",
            "çħ ®",
            "æº ľ",
            "å½ «",
            "æĮ Ł",
            "åı ©",
            "æĭ ĺ",
            "ç© ı",
            "èĻ Ĳ",
            "æº ¢",
            "æ¬ º",
            "é¦ ´",
            "ç º",
            "ç© Ĥ",
            "ç° ¿",
            "è² ŀ",
            "æĨ ©",
            "åı ¶",
            "ï¾ Į",
            "èĻ ļ",
            "ï¼ ¶",
            "å¿ į",
            "æ³ Į",
            "âĳ ¡",
            "é£ ½",
            "å¸ ½",
            "è¢ ĸ",
            "è½ Ħ",
            "å¯ Ĥ",
            "æ¤ İ",
            "è© Ĳ",
            "éĬ ħ",
            "åī °",
            "åĲ ¾",
            "ç´ ĭ",
            "å¼ ¥",
            "âĸ ¼",
            "å¾ ª",
            "åŃ Ŀ",
            "éĻ ¶",
            "è± ļ",
            "å£ ĩ",
            "à¸ Ń",
            "è¿ ħ",
            "çĭ ©",
            "æ² Ļ",
            "âĦ ĥ",
            "æĹ Ń",
            "ï¼ µ",
            "å¦ ĸ",
            "åĻ ´",
            "åģ ī",
            "æµ ª",
            "ã İ",
            "èı Ĭ",
            "âĹ İ",
            "Ã ©",
            "æĸ ī",
            "åĩ ½",
            "æĲ ¬",
            "ç¥ ¥",
            "åı «",
            "ç² ĺ",
            "äº ĳ",
            "èĳ Ľ",
            "å³ °",
            "æĭ į",
            "çķ ³",
            "çĬ ł",
            "çĥ Ī",
            "âĸ ½",
            "çĴ §",
            "çĽ Ĩ",
            "é¶ ı",
            "åħ ĭ",
            "çŁ ¯",
            "ç¬ ł",
            "åĿ Ĭ",
            "çĪ ª",
            "çī ²",
            "é§ Ĵ",
            "è³ ł",
            "â ĩ",
            "åķ ĵ",
            "èĤ º",
            "æł Ĺ",
            "èĨ Ŀ",
            "è ķ",
            "à¸ ª",
            "èĬ ½",
            "é ´",
            "â ħ",
            "èĵ ®",
            "èı ħ",
            "å¯ ¸",
            "è¨ Ł",
            "åĤ į",
            "çŃ ĳ",
            "ç© «",
            "ï½ ²",
            "éģ ·",
            "æĺ Į",
            "è Ŀ",
            "æĨ §",
            "åĩ Ŀ",
            "à¸ ¡",
            "æĹ ĭ",
            "åµ Ĳ",
            "åł ª",
            "èĺ Ń",
            "ï¾ Ĭ",
            "çļ ¿",
            "ç¸ Ľ",
            "è ®",
            "à¹ Ģ",
            "åī Ľ",
            "å» ·",
            "é ŀ",
            "â ¿",
            "ï¼ ł",
            "éį Ľ",
            "ç ¼",
            "æİ ´",
            "â ľ",
            "èī ĩ",
            "æĭ ¾",
            "æ¼ ł",
            "åĻ Ľ",
            "ä¸ ¼",
            "åĭ ĥ",
            "âĨ Ĳ",
            "âĩ Ĵ",
            "éĮ ł",
            "Â «",
            "ä¾ ¯",
            "çĻ ĸ",
            "éļ ħ",
            "æ½ °",
            "åĥ §",
            "éĭ ¼",
            "æľ Ĺ",
            "æī ī",
            "æ´ ²",
            "ä½ Ĩ",
            "æĭ ³",
            "ç¼ ¶",
            "äº «",
            "éĭ Ń",
            "ï¼ ·",
            "éļ Ļ",
            "å¬ ¢",
            "à¸ ¢",
            "æ® Ĩ",
            "à¸ ´",
            "ï½ ¯",
            "Â ł",
            "èĵ ĭ",
            "çģ °",
            "å¦ ¨",
            "ï¾ Ħ",
            "è ¹",
            "æŁ ı",
            "è³ Ń",
            "åĪ ĥ",
            "ç ĺ",
            "æĦ ļ",
            "éĮ ¯",
            "æ¢ ±",
            "æµ ©",
            "åĺ ī",
            "äº Ń",
            "èĪ Į",
            "ç¿ Ķ",
            "æ¹ §",
            "éį ¼",
            "ãģ º",
            "èĥ Ĩ",
            "èĽ ĩ",
            "åº Ħ",
            "è İ",
            "èĺ ĩ",
            "ä¹ Ļ",
            "æĴ ²",
            "æľ ±",
            "ä¹ ı",
            "åĭ ¿",
            "æĽ ½",
            "å® ´",
            "æĭ Ń",
            "èĬ ³",
            "âĨ ĳ",
            "æ³ °",
            "éĻ ³",
            "æħ Ī",
            "å¦ ¥",
            "æ¡ Ĳ",
            "æĥ ¨",
            "æ³ ¥",
            "éĨ ¸",
            "èĮ İ",
            "æ³ ¡",
            "çĽ ¾",
            "éĻ µ",
            "ãĥ µ",
            "åĳ ª",
            "æ¼ Ĥ",
            "âĹ ĩ",
            "çĻ Į",
            "èĤ ¡",
            "çı ł",
            "çĸ İ",
            "ç¬ ¦",
            "à¸ ļ",
            "å® Ľ",
            "æį ®",
            "æĥ ¹",
            "æĸ Ĺ",
            "çĵ ¶",
            "ï¸ ı",
            "ç¾ Ĭ",
            "å¶ ĭ",
            "æ¡ ģ",
            "ï½ ı",
            "èĻ İ",
            "é¼ ĵ",
            "æħ Į",
            "æ¡ ĳ",
            "çĵ ¦",
            "ï½ ħ",
            "à¸ Ķ",
            "çĤ ī",
            "æ£ ĭ",
            "ï¾ ī",
            "çĹ ´",
            "æĿ İ",
            "ðŁ ĺ",
            "åĭ ²",
            "éģ ®",
            "å¯ ®",
            "ãĥ ²",
            "å³ ¡",
            "æĵ ģ",
            "Ã Ń",
            "åī ¥",
            "æĻ ĭ",
            "éļ »",
            "èµ ´",
            "åĩ Ĩ",
            "æ «",
            "åĦ ²",
            "çģ ¸",
            "è£ ¸",
            "ç£ ¯",
            "é¨ Ļ",
            "ç§ ©",
            "æ¢ ģ",
            "å® °",
            "èħ º",
            "é ¯",
            "ç¢ ĳ",
            "æī ĩ",
            "æŁ ´",
            "æĥ ľ",
            "æ¿ ¡",
            "èħ İ",
            "åĮ Ĥ",
            "ï½ ¸",
            "å£ ®",
            "ãģ ī",
            "æ¼ ¬",
            "åĳ Ī",
            "åı Ļ",
            "ç² Ĺ",
            "å° ī",
            "ï½ ½",
            "æķ ¢",
            "ï¼ ¸",
            "çķ ľ",
            "ä¾ į",
            "è³ ĳ",
            "Â ®",
            "ä½ ³",
            "æĢ ł",
            "à¸ °",
            "æº Ŀ",
            "æĵ ¦",
            "ç¨ Ģ",
            "æ® »",
            "à¸ §",
            "åĸ ª",
            "ç¥ Ĳ",
            "âĳ ¢",
            "è´ ħ",
            "éĨ ¤",
            "é¤ Į",
            "åľ ĭ",
            "è² Ŀ",
            "éĢ ¢",
            "à¸ Ħ",
            "é¤ ħ",
            "çĤ Ĭ",
            "è³ Ĭ",
            "çĮ ¿",
            "æĨ Ĥ",
            "åĻ Į",
            "ç´ ¯",
            "åĢ ¶",
            "å¢ ľ",
            "âĢ ĭ",
            "èĢ ķ",
            "Â ģ",
            "æĩ ĩ",
            "å· §",
            "ç¯ ł",
            "å´ ĩ",
            "ï½ ģ",
            "æ¾ Ħ",
            "æĽ ¹",
            "ï½ ĭ",
            "å¹ £",
            "ï½ ĥ",
            "ç¸ «",
            "èª ĵ",
            "èĭ Ĺ",
            "çĪ ½",
            "æľ º",
            "çī ¡",
            "æ§ ½",
            "æĪ ¯",
            "åĶ Ĩ",
            "é Ĳ",
            "å¦ ĥ",
            "åĸ ī",
            "ï¾ Ģ",
            "åĪ Ī",
            "æĸ ¼",
            "åį ¿",
            "Â ©",
            "ãģ ĥ",
            "åĶ ĩ",
            "Ð Ķ",
            "åĸ §",
            "èĸ ©",
            "èĻ ľ",
            "æŀ ķ",
            "è¼ Ķ",
            "å® ı",
            "çİ ©",
            "è¬ ¡",
            "ç¦ Ħ",
            "ä¼ İ",
            "ç¶ ¾",
            "æļ «",
            "ï½ ī",
            "éĢ Ĳ",
            "å¢ ¨",
            "éľ §",
            "ãĤ Ĳ",
            "ç¥ Ģ",
            "ä¼ Ĳ",
            "ï¼ ¿",
            "æŁ Ĳ",
[...]
